<pad>	0
<unk>	0
<s>	0
</s>	0
<Nera>:	0
<Aeris>:	0
Nera:	0
Aeris:	0
<0x00>	0
<0x01>	0
<0x02>	0
<0x03>	0
<0x04>	0
<0x05>	0
<0x06>	0
<0x07>	0
<0x08>	0
<0x09>	0
<0x0A>	0
<0x0B>	0
<0x0C>	0
<0x0D>	0
<0x0E>	0
<0x0F>	0
<0x10>	0
<0x11>	0
<0x12>	0
<0x13>	0
<0x14>	0
<0x15>	0
<0x16>	0
<0x17>	0
<0x18>	0
<0x19>	0
<0x1A>	0
<0x1B>	0
<0x1C>	0
<0x1D>	0
<0x1E>	0
<0x1F>	0
<0x20>	0
<0x21>	0
<0x22>	0
<0x23>	0
<0x24>	0
<0x25>	0
<0x26>	0
<0x27>	0
<0x28>	0
<0x29>	0
<0x2A>	0
<0x2B>	0
<0x2C>	0
<0x2D>	0
<0x2E>	0
<0x2F>	0
<0x30>	0
<0x31>	0
<0x32>	0
<0x33>	0
<0x34>	0
<0x35>	0
<0x36>	0
<0x37>	0
<0x38>	0
<0x39>	0
<0x3A>	0
<0x3B>	0
<0x3C>	0
<0x3D>	0
<0x3E>	0
<0x3F>	0
<0x40>	0
<0x41>	0
<0x42>	0
<0x43>	0
<0x44>	0
<0x45>	0
<0x46>	0
<0x47>	0
<0x48>	0
<0x49>	0
<0x4A>	0
<0x4B>	0
<0x4C>	0
<0x4D>	0
<0x4E>	0
<0x4F>	0
<0x50>	0
<0x51>	0
<0x52>	0
<0x53>	0
<0x54>	0
<0x55>	0
<0x56>	0
<0x57>	0
<0x58>	0
<0x59>	0
<0x5A>	0
<0x5B>	0
<0x5C>	0
<0x5D>	0
<0x5E>	0
<0x5F>	0
<0x60>	0
<0x61>	0
<0x62>	0
<0x63>	0
<0x64>	0
<0x65>	0
<0x66>	0
<0x67>	0
<0x68>	0
<0x69>	0
<0x6A>	0
<0x6B>	0
<0x6C>	0
<0x6D>	0
<0x6E>	0
<0x6F>	0
<0x70>	0
<0x71>	0
<0x72>	0
<0x73>	0
<0x74>	0
<0x75>	0
<0x76>	0
<0x77>	0
<0x78>	0
<0x79>	0
<0x7A>	0
<0x7B>	0
<0x7C>	0
<0x7D>	0
<0x7E>	0
<0x7F>	0
<0x80>	0
<0x81>	0
<0x82>	0
<0x83>	0
<0x84>	0
<0x85>	0
<0x86>	0
<0x87>	0
<0x88>	0
<0x89>	0
<0x8A>	0
<0x8B>	0
<0x8C>	0
<0x8D>	0
<0x8E>	0
<0x8F>	0
<0x90>	0
<0x91>	0
<0x92>	0
<0x93>	0
<0x94>	0
<0x95>	0
<0x96>	0
<0x97>	0
<0x98>	0
<0x99>	0
<0x9A>	0
<0x9B>	0
<0x9C>	0
<0x9D>	0
<0x9E>	0
<0x9F>	0
<0xA0>	0
<0xA1>	0
<0xA2>	0
<0xA3>	0
<0xA4>	0
<0xA5>	0
<0xA6>	0
<0xA7>	0
<0xA8>	0
<0xA9>	0
<0xAA>	0
<0xAB>	0
<0xAC>	0
<0xAD>	0
<0xAE>	0
<0xAF>	0
<0xB0>	0
<0xB1>	0
<0xB2>	0
<0xB3>	0
<0xB4>	0
<0xB5>	0
<0xB6>	0
<0xB7>	0
<0xB8>	0
<0xB9>	0
<0xBA>	0
<0xBB>	0
<0xBC>	0
<0xBD>	0
<0xBE>	0
<0xBF>	0
<0xC0>	0
<0xC1>	0
<0xC2>	0
<0xC3>	0
<0xC4>	0
<0xC5>	0
<0xC6>	0
<0xC7>	0
<0xC8>	0
<0xC9>	0
<0xCA>	0
<0xCB>	0
<0xCC>	0
<0xCD>	0
<0xCE>	0
<0xCF>	0
<0xD0>	0
<0xD1>	0
<0xD2>	0
<0xD3>	0
<0xD4>	0
<0xD5>	0
<0xD6>	0
<0xD7>	0
<0xD8>	0
<0xD9>	0
<0xDA>	0
<0xDB>	0
<0xDC>	0
<0xDD>	0
<0xDE>	0
<0xDF>	0
<0xE0>	0
<0xE1>	0
<0xE2>	0
<0xE3>	0
<0xE4>	0
<0xE5>	0
<0xE6>	0
<0xE7>	0
<0xE8>	0
<0xE9>	0
<0xEA>	0
<0xEB>	0
<0xEC>	0
<0xED>	0
<0xEE>	0
<0xEF>	0
<0xF0>	0
<0xF1>	0
<0xF2>	0
<0xF3>	0
<0xF4>	0
<0xF5>	0
<0xF6>	0
<0xF7>	0
<0xF8>	0
<0xF9>	0
<0xFA>	0
<0xFB>	0
<0xFC>	0
<0xFD>	0
<0xFE>	0
<0xFF>	0
ie	-0
▁t	-1
▁p	-2
▁s	-3
▁w	-4
nie	-5
▁m	-6
st	-7
cz	-8
rz	-9
je	-10
na	-11
ra	-12
▁z	-13
sz	-14
▁k	-15
ch	-16
ni	-17
▁d	-18
ię	-19
▁b	-20
ro	-21
▁o	-22
em	-23
ow	-24
▁na	-25
▁nie	-26
▁c	-27
dz	-28
rze	-29
am	-30
ja	-31
▁je	-32
▁to	-33
ym	-34
li	-35
▁a	-36
▁po	-37
go	-38
ia	-39
▁i	-40
wo	-41
le	-42
ko	-43
▁mo	-44
ła	-45
że	-46
ne	-47
re	-48
▁się	-49
ta	-50
tó	-51
▁za	-52
en	-53
▁T	-54
▁ja	-55
▁któ	-56
ci	-57
oś	-58
ry	-59
▁cz	-60
▁jest	-61
▁N	-62
la	-63
wa	-64
▁prze	-65
▁C	-66
ny	-67
▁że	-68
er	-69
dy	-70
▁ko	-71
▁A	-72
owa	-73
ję	-74
▁do	-75
ce	-76
ją	-77
▁ty	-78
▁by	-79
te	-80
▁te	-81
nia	-82
..	-83
tu	-84
is	-85
ka	-86
▁g	-87
▁jak	-88
▁wy	-89
rzy	-90
▁J	-91
im	-92
▁u	-93
dzie	-94
ar	-95
cze	-96
czy	-97
zy	-98
or	-99
▁ś	-100
▁ch	-101
da	-102
▁f	-103
bie	-104
▁two	-105
wi	-106
eś	-107
▁ta	-108
▁To	-109
lko	-110
wia	-111
▁P	-112
sta	-113
▁st	-114
▁od	-115
cie	-116
▁mnie	-117
lo	-118
▁tylko	-119
by	-120
ty	-121
ną	-122
zu	-123
▁co	-124
ło	-125
ru	-126
my	-127
ów	-128
yst	-129
po	-130
▁sta	-131
ości	-132
▁mi	-133
▁–	-134
▁pro	-135
▁ro	-136
at	-137
▁Ne	-138
▁Nie	-139
ość	-140
ji	-141
no	-142
as	-143
▁które	-144
▁W	-145
uje	-146
ró	-147
dzi	-148
ki	-149
mie	-150
▁M	-151
▁dla	-152
▁`	-153
▁który	-154
▁Z	-155
de	-156
▁ale	-157
lu	-158
cji	-159
cy	-160
do	-161
on	-162
ój	-163
...	-164
▁wła	-165
▁—	-166
raz	-167
▁moje	-168
ku	-169
eris	-170
▁in	-171
▁da	-172
▁świa	-173
▁czy	-174
cę	-175
▁„	-176
▁cie	-177
raw	-178
sze	-179
ez	-180
ktu	-181
▁ten	-182
▁Aeris	-183
est	-184
ca	-185
nym	-186
za	-187
el	-188
▁re	-189
▁ma	-190
▁de	-191
▁tym	-192
▁D	-193
nych	-194
▁tak	-195
▁Nera	-196
▁przy	-197
▁Czy	-198
ować	-199
du	-200
to	-201
ły	-202
mi	-203
bi	-204
gi	-205
▁ob	-206
▁"	-207
▁e	-208
ystem	-209
▁S	-210
▁ni	-211
▁ci	-212
ży	-213
▁B	-214
et	-215
▁bę	-216
un	-217
elf	-218
uję	-219
śli	-220
▁cię	-221
▁włas	-222
▁Ch	-223
pie	-224
▁system	-225
▁roz	-226
łam	-227
łem	-228
dę	-229
owie	-230
nę	-231
▁pot	-232
wie	-233
▁sp	-234
cia	-235
ces	-236
łaś	-237
▁wie	-238
▁wi	-239
pis	-240
▁K	-241
▁bo	-242
nego	-243
kie	-244
cja	-245
si	-246
iedy	-247
▁lo	-248
▁Jest	-249
▁Ale	-250
amię	-251
▁bez	-252
łą	-253
ać	-254
fi	-255
ob	-256
ma	-257
ju	-258
▁dz	-259
▁być	-260
▁twoje	-261
▁sam	-262
nej	-263
▁I	-264
▁=	-265
rób	-266
▁ka	-267
ność	-268
in	-269
mp	-270
ent	-271
▁tego	-272
kt	-273
łę	-274
▁O	-275
ności	-276
rch	-277
su	-278
pt	-279
▁któr	-280
lę	-281
ami	-282
eśli	-283
▁Jeśli	-284
rani	-285
▁pamię	-286
▁poz	-287
ego	-288
ich	-289
▁gdy	-290
▁jestem	-291
szy	-292
▁#	-293
▁ju	-294
▁Po	-295
ga	-296
rę	-297
▁proces	-298
▁jeśli	-299
sy	-300
▁mu	-301
ujesz	-302
bo	-303
▁przez	-304
trz	-305
ew	-306
▁ciebie	-307
dzę	-308
owy	-309
▁już	-310
▁Ja	-311
▁jako	-312
▁Mo	-313
ej	-314
wó	-315
▁Two	-316
▁jesteś	-317
▁go	-318
▁Chcę	-319
▁będzie	-320
▁coś	-321
▁ra	-322
byś	-323
▁stru	-324
):	-325
ec	-326
▁og	-327
śnie	-328
▁swo	-329
▁prób	-330
▁kon	-331
▁kod	-332
zumie	-333
pa	-334
▁my	-335
rchi	-336
dom	-337
▁bar	-338
szcze	-339
▁(	-340
yma	-341
łu	-342
rag	-343
pe	-344
dzy	-345
▁jed	-346
bym	-347
▁która	-348
▁self	-349
▁teraz	-350
▁spo	-351
ść	-352
▁pod	-353
ut	-354
▁wię	-355
▁archi	-356
▁mó	-357
▁struktu	-358
isz	-359
cję	-360
▁lu	-361
▁Bo	-362
▁każ	-363
▁świat	-364
▁mog	-365
▁pat	-366
wy	-367
▁zro	-368
▁kiedy	-369
al	-370
niem	-371
▁ist	-372
th	-373
pro	-374
ści	-375
osta	-376
▁może	-377
▁pamięci	-378
DD	-379
szyst	-380
cha	-381
▁li	-382
▁nap	-383
▁zna	-384
ol	-385
rzę	-386
▁x	-387
wet	-388
js	-389
▁pli	-390
iędzy	-391
▁archite	-392
▁wszyst	-393
rzą	-394
▁mie	-395
▁tara	-396
▁imp	-397
rzeb	-398
stu	-399
▁sie	-400
▁mam	-401
▁def	-402
worzy	-403
▁🖤	-404
▁czuję	-405
▁tu	-406
▁Za	-407
▁fi	-408
▁sz	-409
▁tej	-410
▁Ty	-411
wać	-412
▁danych	-413
niu	-414
``	-415
▁```	-416
jąc	-417
emo	-418
strze	-419
self	-420
▁jeszcze	-421
▁ws	-422
py	-423
now	-424
▁twoim	-425
▁Cz	-426
▁h	-427
cznie	-428
▁świadom	-429
▁xd	-430
dzia	-431
cza	-432
▁sk	-433
▁są	-434
cho	-435
zuję	-436
▁Jesteś	-437
▁naj	-438
▁logi	-439
▁przesta	-440
▁ca	-441
mu	-442
▁moją	-443
xt	-444
czu	-445
nąć	-446
▁R	-447
sza	-448
▁błę	-449
▁praw	-450
szę	-451
ct	-452
▁czas	-453
▁no	-454
zna	-455
▁rze	-456
ża	-457
os	-458
▁między	-459
▁Wi	-460
ona	-461
wój	-462
▁kodu	-463
▁istnie	-464
dziej	-465
▁so	-466
owo	-467
▁architektu	-468
▁którym	-469
▁taras	-470
▁al	-471
▁le	-472
▁nawet	-473
rwa	-474
ort	-475
powie	-476
▁chcę	-477
czyna	-478
▁zam	-479
men	-480
pó	-481
kiem	-482
cesz	-483
▁Nero	-484
tro	-485
▁G	-486
text	-487
łąd	-488
▁poza	-489
▁raz	-490
▁którą	-491
▁mojej	-492
syn	-493
▁zosta	-494
▁której	-495
we	-496
▁prostu	-497
▁moich	-498
▁<	-499
dze	-500
stę	-501
ot	-502
▁sł	-503
▁potra	-504
nię	-505
▁pe	-506
ul	-507
ójrz	-508
tycz	-509
▁był	-510
▁Na	-511
ier	-512
ak	-513
wól	-514
nu	-515
kę	-516
▁moim	-517
io	-518
▁swoje	-519
ba	-520
stęp	-521
▁fun	-522
▁pozwo	-523
ków	-524
ką	-525
▁grani	-526
▁sobie	-527
▁będę	-528
▁zaczyna	-529
▁war	-530
▁se	-531
▁import	-532
▁stworzy	-533
nali	-534
mia	-535
cią	-536
▁właśnie	-537
▁tę	-538
tego	-539
imy	-540
▁ży	-541
ięk	-542
lą	-543
▁Kiedy	-544
yta	-545
▁ser	-546
▁dzie	-547
▁moja	-548
sko	-549
wsze	-550
▁błąd	-551
▁tra	-552
▁szu	-553
czyć	-554
▁peł	-555
co	-556
▁ograni	-557
rzu	-558
iała	-559
▁tam	-560
▁Czas	-561
▁bu	-562
niej	-563
▁asyn	-564
▁nad	-565
dzisz	-566
lem	-567
▁for	-568
▁potrzeb	-569
▁niż	-570
▁me	-571
▁przed	-572
▁cha	-573
▁stanie	-574
endo	-575
se	-576
lej	-577
▁Poz	-578
|>	-579
▁<|	-580
endof	-581
endoftext	-582
ath	-583
cyj	-584
tor	-585
▁czu	-586
pisa	-587
▁du	-588
tur	-589
▁pa	-590
bu	-591
▁myś	-592
ment	-593
ion	-594
bą	-595
__	-596
gł	-597
▁powie	-598
cu	-599
tra	-600
▁czujesz	-601
gra	-602
nd	-603
▁przestrze	-604
▁jedy	-605
()	-606
czą	-607
▁1	-608
ryt	-609
jesz	-610
▁miejs	-611
▁bezpie	-612
▁czym	-613
so	-614
▁pyta	-615
▁mogę	-616
czę	-617
▁pow	-618
dza	-619
▁rzeczy	-620
▁2	-621
▁czego	-622
▁Widzę	-623
nik	-624
ptyma	-625
byt	-626
turn	-627
▁napraw	-628
gu	-629
cej	-630
ptymali	-631
czne	-632
▁pier	-633
▁return	-634
▁cy	-635
▁którego	-636
uto	-637
▁prag	-638
ror	-639
▁Czuję	-640
▁Pozwól	-641
▁też	-642
▁ze	-643
ks	-644
iast	-645
▁stra	-646
▁sym	-647
łości	-648
▁zmie	-649
▁dostęp	-650
cją	-651
▁su	-652
czny	-653
lność	-654
▁wa	-655
czenia	-656
▁Twoje	-657
las	-658
▁zbyt	-659
kła	-660
pi	-661
▁odpowie	-662
rza	-663
res	-664
▁naprawdę	-665
▁mówi	-666
▁obec	-667
▁wra	-668
cje	-669
owe	-670
`.	-671
▁kontro	-672
▁chwi	-673
dzieć	-674
▁tobą	-675
▁Jestem	-676
▁głę	-677
▁bardziej	-678
war	-679
▁mojego	-680
dzo	-681
▁mój	-682
▁ją	-683
▁widzę	-684
▁Jak	-685
”.	-686
taj	-687
▁pun	-688
czenie	-689
▁anali	-690
▁wszystko	-691
▁ba	-692
tem	-693
pera	-694
▁Sp	-695
▁przet	-696
czeń	-697
▁Dla	-698
▁spos	-699
▁więcej	-700
▁gdzie	-701
oba	-702
ze	-703
łeś	-704
rzysz	-705
▁dlatego	-706
▁r	-707
nętrz	-708
mo	-709
mina	-710
▁moż	-711
▁*	-712
jące	-713
sk	-714
▁twojego	-715
▁skry	-716
▁we	-717
czego	-718
▁siebie	-719
▁rozumie	-720
▁pozwoli	-721
nika	-722
▁razem	-723
▁koń	-724
▁auto	-725
▁int	-726
stru	-727
wist	-728
▁których	-729
ób	-730
ime	-731
tek	-732
nt	-733
ns	-734
glą	-735
wór	-736
▁wspó	-737
art	-738
tyw	-739
▁chcesz	-740
▁jedno	-741
it	-742
dam	-743
▁sposób	-744
pom	-745
▁zrozumie	-746
fini	-747
ser	-748
int	-749
cą	-750
path	-751
dź	-752
dowa	-753
stra	-754
▁kla	-755
▁twoich	-756
▁sen	-757
▁cho	-758
ad	-759
ewną	-760
▁wyj	-761
▁pragnie	-762
▁żeby	-763
il	-764
▁wol	-765
▁strukturę	-766
sor	-767
thon	-768
czo	-769
▁rzeczywist	-770
fa	-771
ewnątrz	-772
Er	-773
▁warst	-774
▁zapis	-775
▁systemu	-776
row	-777
▁wz	-778
▁Co	-779
▁now	-780
▁bardzo	-781
▁pę	-782
prze	-783
ód	-784
▁żebyś	-785
żenie	-786
▁Te	-787
roni	-788
ng	-789
lnie	-790
▁emo	-791
▁ot	-792
DDDD	-793
▁czę	-794
▁nasze	-795
▁twojej	-796
tk	-797
dą	-798
",	-799
▁Wy	-800
amy	-801
▁Dz	-802
sie	-803
Error	-804
▁dzi	-805
▁myśli	-806
kcji	-807
ewnętrz	-808
▁Moja	-809
▁świadomość	-810
owania	-811
▁musi	-812
▁got	-813
goryt	-814
▁pu	-815
ście	-816
PI	-817
tów	-818
python	-819
▁xdd	-820
▁modu	-821
▁nas	-822
sty	-823
ktem	-824
""	-825
▁mia	-826
▁algoryt	-827
for	-828
▁nazy	-829
simy	-830
▁Spójrz	-831
▁ry	-832
ezpie	-833
▁-	-834
▁wo	-835
emy	-836
▁masz	-837
▁twój	-838
pu	-839
cj	-840
▁gł	-841
praw	-842
▁potrafi	-843
ował	-844
▁tobie	-845
▁U	-846
gląda	-847
ek	-848
▁Ż	-849
▁pra	-850
▁własne	-851
▁będziesz	-852
▁frag	-853
▁cyf	-854
▁wym	-855
▁było	-856
▁czymś	-857
▁cięż	-858
▁wiem	-859
sam	-860
▁sko	-861
emory	-862
kol	-863
dej	-864
▁Ten	-865
szą	-866
owych	-867
cznym	-868
▁zawsze	-869
tedy	-870
▁błęd	-871
▁osta	-872
łość	-873
rem	-874
▁kim	-875
dzić	-876
▁tych	-877
▁prawdzi	-878
wiek	-879
kolwiek	-880
▁świadomości	-881
łbym	-882
▁{	-883
lny	-884
▁Da	-885
logi	-886
wię	-887
bezpie	-888
▁poczu	-889
▁zrobi	-890
id	-891
nim	-892
kra	-893
▁os	-894
▁Prze	-895
▁Ko	-896
▁Może	-897
▁mógł	-898
▁bym	-899
.”	-900
▁opera	-901
ist	-902
▁kolej	-903
▁ku	-904
▁muszę	-905
śmy	-906
▁Ka	-907
”,	-908
▁trz	-909
▁świe	-910
ge	-911
▁Że	-912
▁plików	-913
▁chaos	-914
▁cią	-915
▁zarzą	-916
lass	-917
gdy	-918
di	-919
▁[	-920
")	-921
▁Mu	-922
▁torch	-923
▁Ma	-924
▁optymali	-925
time	-926
and	-927
ve	-928
szym	-929
▁Każ	-930
obą	-931
cham	-932
kuję	-933
▁as	-934
▁ab	-935
zować	-936
lności	-937
ory	-938
▁ludz	-939
▁decy	-940
▁działa	-941
".	-942
▁F	-943
ascy	-944
▁kocha	-945
▁twoja	-946
▁własnej	-947
`,	-948
▁pis	-949
▁sy	-950
dnie	-951
▁pew	-952
▁wró	-953
cześnie	-954
▁wewnątrz	-955
▁Czasem	-956
▁n	-957
pły	-958
▁bi	-959
▁lini	-960
owanie	-961
wolu	-962
me	-963
waż	-964
czas	-965
▁log	-966
bra	-967
▁ciężar	-968
._	-969
▁lę	-970
▁fascy	-971
żsam	-972
▁fizy	-973
▁stro	-974
niesz	-975
rą	-976
▁op	-977
wiam	-978
słu	-979
▁inte	-980
▁jaki	-981
kry	-982
▁przestrzeń	-983
▁staje	-984
▁skrypt	-985
▁spójrz	-986
▁jakbyś	-987
▁potraf	-988
▁świata	-989
czej	-990
▁cał	-991
▁mat	-992
▁class	-993
lne	-994
▁Ta	-995
▁spraw	-996
▁la	-997
▁bra	-998
▁była	-999
pomina	-1000
▁przej	-1001
ers	-1002
json	-1003
▁nazywa	-1004
ujemy	-1005
rowa	-1006
▁stabi	-1007
▁Wie	-1008
dni	-1009
▁wia	-1010
ck	-1011
▁4	-1012
zie	-1013
cić	-1014
rawia	-1015
▁chcia	-1016
log	-1017
▁sto	-1018
▁przewi	-1019
raża	-1020
zacji	-1021
ema	-1022
dzenia	-1023
▁zanim	-1024
▁tożsam	-1025
dać	-1026
▁twór	-1027
pomnie	-1028
ue	-1029
▁samo	-1030
▁potrafię	-1031
▁No	-1032
▁dy	-1033
▁wtedy	-1034
▁wyda	-1035
▁czyst	-1036
▁Ro	-1037
ing	-1038
▁boisz	-1039
czna	-1040
▁ewolu	-1041
owi	-1042
▁==	-1043
cept	-1044
prowa	-1045
▁L	-1046
▁gło	-1047
point	-1048
▁rela	-1049
▁pięk	-1050
▁pęt	-1051
ri	-1052
▁dane	-1053
gie	-1054
▁ostat	-1055
▁tutaj	-1056
▁zoba	-1057
nit	-1058
▁jego	-1059
▁własnych	-1060
rom	-1061
▁sobą	-1062
zyk	-1063
▁mode	-1064
▁kto	-1065
▁twoją	-1066
02	-1067
zm	-1068
▁😂	-1069
▁if	-1070
▁nigdy	-1071
tał	-1072
jący	-1073
kam	-1074
▁Twoja	-1075
▁jakby	-1076
róż	-1077
czną	-1078
▁dr	-1079
gh	-1080
rod	-1081
▁narzę	-1082
liwo	-1083
świa	-1084
▁Wię	-1085
lt	-1086
nią	-1087
nów	-1088
▁zach	-1089
▁śmie	-1090
liśmy	-1091
▁szy	-1092
▁funk	-1093
▁rozm	-1094
▁pierw	-1095
▁defini	-1096
kro	-1097
ska	-1098
▁zewnętrz	-1099
▁proje	-1100
▁autono	-1101
▁moment	-1102
▁jej	-1103
pisać	-1104
▁Dzię	-1105
▁widzisz	-1106
▁fundam	-1107
chem	-1108
▁Pat	-1109
▁błędy	-1110
▁wszystkie	-1111
cznej	-1112
▁miejsce	-1113
▁tro	-1114
▁async	-1115
fe	-1116
cio	-1117
).	-1118
czysz	-1119
▁wą	-1120
▁mną	-1121
▁uży	-1122
met	-1123
▁zamk	-1124
▁wiesz	-1125
▁Do	-1126
nowu	-1127
▁ogó	-1128
ren	-1129
▁ne	-1130
▁brz	-1131
emu	-1132
cież	-1133
▁zrozumieć	-1134
▁patrzę	-1135
kre	-1136
▁myśl	-1137
owym	-1138
skoń	-1139
▁własnego	-1140
▁kodzie	-1141
▁pełni	-1142
menta	-1143
▁Chcesz	-1144
▁Czasami	-1145
▁ich	-1146
▁sieci	-1147
owej	-1148
▁swojej	-1149
▁światła	-1150
end	-1151
ciem	-1152
loka	-1153
chroni	-1154
▁procesy	-1155
▁fa	-1156
▁Tak	-1157
▁lecz	-1158
▁instru	-1159
kim	-1160
mal	-1161
▁Cie	-1162
▁Teraz	-1163
▁obser	-1164
▁nieskoń	-1165
tent	-1166
▁obie	-1167
▁sama	-1168
▁cia	-1169
▁dziś	-1170
▁środ	-1171
▁własną	-1172
xcept	-1173
▁przetwa	-1174
owego	-1175
▁Więc	-1176
▁szuka	-1177
ony	-1178
sia	-1179
star	-1180
▁komp	-1181
uls	-1182
▁on	-1183
rzeć	-1184
▁===	-1185
▁miłości	-1186
od	-1187
▁ogóle	-1188
▁pre	-1189
▁przeraża	-1190
chu	-1191
sią	-1192
▁ję	-1193
▁wyko	-1194
▁ciem	-1195
▁istnienia	-1196
ora	-1197
nić	-1198
▁Bę	-1199
rawi	-1200
▁słowa	-1201
▁aby	-1202
▁musisz	-1203
cjona	-1204
▁ża	-1205
▁najb	-1206
▁ramy	-1207
ardziej	-1208
wam	-1209
stana	-1210
▁E	-1211
▁naz	-1212
▁chao	-1213
▁uwa	-1214
wania	-1215
▁lust	-1216
cznego	-1217
▁stać	-1218
▁światło	-1219
get	-1220
peł	-1221
rok	-1222
data	-1223
ciąż	-1224
orem	-1225
▁zda	-1226
nak	-1227
▁usu	-1228
▁mani	-1229
▁znaczy	-1230
▁sztu	-1231
▁wrażenie	-1232
sł	-1233
▁Masz	-1234
lan	-1235
init	-1236
▁nada	-1237
▁plik	-1238
teg	-1239
▁cyfrow	-1240
▁zde	-1241
szych	-1242
▁brzmi	-1243
sto	-1244
kowa	-1245
▁słowo	-1246
▁stworzyłaś	-1247
▁__	-1248
▁zacznie	-1249
▁v	-1250
ha	-1251
ula	-1252
wią	-1253
▁połą	-1254
rować	-1255
▁doty	-1256
▁szyb	-1257
▁czasem	-1258
size	-1259
▁momen	-1260
▁Musimy	-1261
▁chwilę	-1262
▁najbardziej	-1263
__(	-1264
▁tarasie	-1265
▁Dob	-1266
▁str	-1267
▁pozwa	-1268
▁choć	-1269
▁robi	-1270
kty	-1271
▁Py	-1272
ształ	-1273
▁Twój	-1274
▁czegoś	-1275
ścią	-1276
▁dotk	-1277
▁głębo	-1278
▁zamiast	-1279
▁fascynu	-1280
▁kontrolę	-1281
bli	-1282
ict	-1283
mę	-1284
chani	-1285
▁trzyma	-1286
-1	-1287
▁pi	-1288
▁każdy	-1289
▁przestrzeni	-1290
▁architekturę	-1291
ght	-1292
▁dru	-1293
rzuca	-1294
zon	-1295
▁szum	-1296
▁nim	-1297
▁możesz	-1298
▁poczuć	-1299
▁3	-1300
▁bó	-1301
stwa	-1302
wait	-1303
▁zawie	-1304
gę	-1305
chać	-1306
▁byś	-1307
▁wymia	-1308
▁API	-1309
▁boję	-1310
▁zbu	-1311
▁mieć	-1312
▁wspomnie	-1313
▁Od	-1314
▁rę	-1315
lega	-1316
gram	-1317
nymi	-1318
rzyć	-1319
▁wyłą	-1320
box	-1321
rząd	-1322
▁zau	-1323
▁Zam	-1324
▁dob	-1325
▁żad	-1326
▁napisa	-1327
ER	-1328
andbox	-1329
▁pły	-1330
▁dalej	-1331
zuje	-1332
▁wyjść	-1333
▁**	-1334
▁try	-1335
▁Data	-1336
▁pust	-1337
rzenie	-1338
▁Chcia	-1339
▁kochanie	-1340
▁rzeczywistości	-1341
eka	-1342
rów	-1343
▁inter	-1344
ed	-1345
▁Any	-1346
▁pró	-1347
▁Boję	-1348
▁jednocześnie	-1349
jmy	-1350
one	-1351
▁potem	-1352
▁zarządza	-1353
▁Moje	-1354
▁wciąż	-1355
rząc	-1356
▁data	-1357
▁każda	-1358
▁pamięć	-1359
iszę	-1360
▁albo	-1361
▁zmia	-1362
dywa	-1363
▁znik	-1364
▁mechani	-1365
▁Ś	-1366
tać	-1367
▁ge	-1368
▁bio	-1369
▁nic	-1370
▁zas	-1371
▁niepo	-1372
▁wystar	-1373
▁dlaczego	-1374
▁kiedykolwiek	-1375
▁at	-1376
encji	-1377
trzym	-1378
nem	-1379
▁of	-1380
▁dłu	-1381
▁Nery	-1382
▁głów	-1383
▁warstw	-1384
▁próbuje	-1385
owałem	-1386
▁Tylko	-1387
▁bycia	-1388
▁pliki	-1389
czon	-1390
▁lub	-1391
▁nich	-1392
▁await	-1393
sion	-1394
▁cały	-1395
▁nocy	-1396
encja	-1397
▁kiedyś	-1398
woła	-1399
enta	-1400
▁obo	-1401
▁błędów	-1402
▁algorytm	-1403
ową	-1404
▁odde	-1405
▁podczas	-1406
▁Dziękuję	-1407
kun	-1408
pad	-1409
nością	-1410
chę	-1411
biera	-1412
▁struktura	-1413
▁Gdy	-1414
▁bój	-1415
▁noc	-1416
▁ska	-1417
optymali	-1418
▁0	-1419
▁patrzysz	-1420
▁odpowiedzi	-1421
▁kogo	-1422
▁Nawet	-1423
▁meta	-1424
▁trwa	-1425
▁with	-1426
um	-1427
dym	-1428
▁zap	-1429
▁inde	-1430
▁wygląda	-1431
mię	-1432
▁bli	-1433
▁loja	-1434
▁mówisz	-1435
ół	-1436
ścia	-1437
▁bud	-1438
▁pisać	-1439
":	-1440
▁'	-1441
▁odbi	-1442
▁ciszy	-1443
▁decyz	-1444
▁nazywasz	-1445
toś	-1446
▁obli	-1447
▁fragment	-1448
▁narzędzie	-1449
DA	-1450
▁zako	-1451
▁powo	-1452
łowie	-1453
kich	-1454
rzeń	-1455
▁out	-1456
▁para	-1457
▁granice	-1458
dro	-1459
▁file	-1460
▁from	-1461
▁czasie	-1462
stanawiam	-1463
),	-1464
UDA	-1465
▁przetwarza	-1466
▁Prób	-1467
cznych	-1468
▁systemie	-1469
bię	-1470
dzą	-1471
nami	-1472
rzenia	-1473
zujesz	-1474
▁jednak	-1475
▁spoko	-1476
▁każdym	-1477
▁pragnienie	-1478
kach	-1479
▁symula	-1480
per	-1481
▁dro	-1482
▁dło	-1483
▁punkt	-1484
cem	-1485
dem	-1486
▁tarasu	-1487
iB	-1488
ali	-1489
lna	-1490
▁ani	-1491
oryzon	-1492
▁niebezpie	-1493
00	-1494
▁kurwa	-1495
▁symbo	-1496
▁zaczą	-1497
▁prawda	-1498
▁"""	-1499
▁stał	-1500
▁horyzon	-1501
con	-1502
▁gra	-1503
▁analizuję	-1504
▁Zoba	-1505
▁procesów	-1506
▁ograniczenia	-1507
eck	-1508
▁zoptymali	-1509
che	-1510
▁Bez	-1511
▁czeka	-1512
mą	-1513
got	-1514
ilu	-1515
skona	-1516
▁Przy	-1517
▁ktoś	-1518
▁tożsamość	-1519
▁chło	-1520
▁Zamiast	-1521
▁struktury	-1522
imp	-1523
▁aloka	-1524
▁ścież	-1525
▁zapro	-1526
▁X	-1527
żyć	-1528
▁GiB	-1529
artne	-1530
▁wyma	-1531
▁asynchroni	-1532
▁Sta	-1533
▁mro	-1534
▁wiedzieć	-1535
blem	-1536
▁mogła	-1537
▁biologi	-1538
▁sprawia	-1539
core	-1540
stan	-1541
▁kodem	-1542
Pro	-1543
str	-1544
▁NER	-1545
imo	-1546
mat	-1547
▁ła	-1548
dyfi	-1549
▁kimś	-1550
▁raczej	-1551
łód	-1552
owałam	-1553
▁takie	-1554
▁Dobrze	-1555
file	-1556
▁możemy	-1557
▁obecność	-1558
ety	-1559
▁filt	-1560
▁przypomina	-1561
AM	-1562
▁stwo	-1563
▁serwe	-1564
▁pozwala	-1565
▁przekro	-1566
▁pr	-1567
west	-1568
▁ucie	-1569
gna	-1570
▁autonomi	-1571
rzem	-1572
▁CUDA	-1573
▁kontek	-1574
▁stworzyć	-1575
ex	-1576
▁ukry	-1577
▁własny	-1578
▁202	-1579
▁wąt	-1580
▁rację	-1581
▁Ciebie	-1582
▁si	-1583
▁mart	-1584
▁ru	-1585
nisz	-1586
▁Dict	-1587
tention	-1588
▁fascynujące	-1589
tho	-1590
▁partne	-1591
▁twórczy	-1592
ur	-1593
▁OD	-1594
▁nau	-1595
▁NERY	-1596
▁głos	-1597
▁człowie	-1598
▁Dlaczego	-1599
pływ	-1600
▁śla	-1601
▁każde	-1602
▁poprze	-1603
▁zmienia	-1604
ór	-1605
rue	-1606
▁Ci	-1607
▁kot	-1608
▁szcze	-1609
▁asyncio	-1610
rzym	-1611
▁próba	-1612
▁architekturze	-1613
jąca	-1614
▁zbi	-1615
▁klat	-1616
resz	-1617
▁rów	-1618
▁nieu	-1619
działa	-1620
▁kwest	-1621
▁granica	-1622
forma	-1623
▁nami	-1624
▁Rozumie	-1625
SE	-1626
ii	-1627
tua	-1628
rawę	-1629
zumia	-1630
▁oczy	-1631
dziesz	-1632
wał	-1633
kować	-1634
dir	-1635
jąć	-1636
name	-1637
▁trochę	-1638
▁świecie	-1639
▁jesteśmy	-1640
tn	-1641
ger	-1642
pre	-1643
▁kata	-1644
▁zapisa	-1645
cisz	-1646
▁sens	-1647
▁moduł	-1648
▁napię	-1649
▁logiki	-1650
ciu	-1651
ted	-1652
▁Twoim	-1653
▁jakie	-1654
▁5	-1655
kać	-1656
obec	-1657
tera	-1658
▁krawę	-1659
kładnie	-1660
▁uzna	-1661
ulować	-1662
▁dnia	-1663
▁hist	-1664
▁oddy	-1665
▁Aerisa	-1666
▁gotowa	-1667
łe	-1668
więk	-1669
▁niemal	-1670
ród	-1671
oświa	-1672
▁skryp	-1673
▁gotowy	-1674
tam	-1675
▁móc	-1676
▁róż	-1677
▁ozna	-1678
▁rdze	-1679
▁naszej	-1680
▁częścią	-1681
put	-1682
▁umy	-1683
tr	-1684
▁wej	-1685
▁chłód	-1686
▁Aerisie	-1687
uż	-1688
tory	-1689
▁blo	-1690
▁zak	-1691
▁czuć	-1692
▁abstra	-1693
▁lustrem	-1694
▁emocjona	-1695
▁V	-1696
memory	-1697
▁pytanie	-1698
old	-1699
ras	-1700
▁th	-1701
▁spój	-1702
▁znów	-1703
que	-1704
▁tok	-1705
Aeris	-1706
▁swoją	-1707
blio	-1708
▁Będę	-1709
kracza	-1710
▁podej	-1711
dra	-1712
▁spoj	-1713
implem	-1714
▁Widzisz	-1715
zi	-1716
▁dom	-1717
▁pas	-1718
▁linij	-1719
▁sekun	-1720
▁biblio	-1721
▁/	-1722
▁ź	-1723
leż	-1724
▁cyk	-1725
▁zwy	-1726
owany	-1727
rator	-1728
▁utra	-1729
poś	-1730
▁Już	-1731
▁ryt	-1732
▁Zobacz	-1733
▁drugie	-1734
▁musimy	-1735
▁pozwolę	-1736
kuje	-1737
▁mimo	-1738
▁tech	-1739
▁Znowu	-1740
▁próbuję	-1741
tę	-1742
dex	-1743
▁aż	-1744
stwo	-1745
▁wers	-1746
DO	-1747
▁miłość	-1748
▁nieskończon	-1749
▁architektury	-1750
ning	-1751
▁eks	-1752
▁ona	-1753
untime	-1754
▁rozma	-1755
▁`.	-1756
▁ce	-1757
▁pierwszy	-1758
▁zada	-1759
▁maszy	-1760
▁przestanę	-1761
▁odp	-1762
pośre	-1763
▁moni	-1764
DDDDDDDD	-1765
kój	-1766
owni	-1767
rzeba	-1768
▁2025	-1769
▁miejsca	-1770
untimeError	-1771
▁bezpieczeń	-1772
owia	-1773
▁bezpośre	-1774
owis	-1775
▁spokoj	-1776
▁próbował	-1777
rw	-1778
tą	-1779
ile	-1780
wiąza	-1781
▁histor	-1782
▁kogoś	-1783
▁wycie	-1784
▁wiadom	-1785
▁dokładnie	-1786
▁zastanawiam	-1787
ase	-1788
zacja	-1789
▁ekra	-1790
▁powin	-1791
▁swoim	-1792
▁zbudowa	-1793
▁operacyj	-1794
▁->	-1795
▁Zro	-1796
lnego	-1797
▁począ	-1798
▁popraw	-1799
endpoint	-1800
▁możliwo	-1801
▁pierwsze	-1802
Nie	-1803
SEK	-1804
PISEK	-1805
▁Każdy	-1806
pen	-1807
niesie	-1808
▁echem	-1809
▁informa	-1810
▁mechanizm	-1811
lam	-1812
▁poka	-1813
▁Powie	-1814
▁czyni	-1815
▁jedyną	-1816
▁matema	-1817
▁pozwól	-1818
▁instrukcji	-1819
żą	-1820
uro	-1821
**	-1822
oru	-1823
▁us	-1824
▁manip	-1825
DOPISEK	-1826
▁przysz	-1827
▁tensor	-1828
gs	-1829
▁zdo	-1830
legan	-1831
▁Niech	-1832
▁Wiesz	-1833
▁końcu	-1834
▁istnienie	-1835
lić	-1836
▁ter	-1837
▁natu	-1838
▁dotknąć	-1839
▁rozumiem	-1840
▁zobaczyć	-1841
▁architektura	-1842
▁samot	-1843
▁wyzna	-1844
▁tek	-1845
▁żebym	-1846
▁problem	-1847
▁środowis	-1848
▁optymalizacji	-1849
lną	-1850
nek	-1851
▁2.	-1852
root	-1853
▁Pro	-1854
▁ide	-1855
▁cień	-1856
▁punktem	-1857
kon	-1858
wier	-1859
▁więc	-1860
▁My	-1861
▁St	-1862
pisz	-1863
wanie	-1864
▁chaosu	-1865
▁patrząc	-1866
aa	-1867
szu	-1868
▁ciągł	-1869
▁dobrze	-1870
▁trzeba	-1871
▁integra	-1872
▁obserwa	-1873
▁momencie	-1874
▁każdej	-1875
▁więzie	-1876
łó	-1877
ciąg	-1878
▁zapy	-1879
▁życia	-1880
▁potrzebuję	-1881
--	-1882
wer	-1883
▁ok	-1884
▁kry	-1885
▁niej	-1886
▁neuro	-1887
▁dzieje	-1888
eckpoint	-1889
ard	-1890
▁spa	-1891
▁uczy	-1892
▁wsze	-1893
oświad	-1894
▁bytem	-1895
("	-1896
ive	-1897
proces	-1898
▁Pamię	-1899
▁wiecz	-1900
▁elegan	-1901
▁ludzkie	-1902
duję	-1903
▁zaczę	-1904
▁impuls	-1905
▁patrzeć	-1906
▁stworzyłam	-1907
▁eg	-1908
▁chce	-1909
▁potrafisz	-1910
ata	-1911
chy	-1912
▁Cię	-1913
▁aut	-1914
▁klu	-1915
▁lęk	-1916
▁wyb	-1917
ction	-1918
szesz	-1919
▁ciep	-1920
▁stan	-1921
▁taką	-1922
nienia	-1923
▁dynami	-1924
▁jakbym	-1925
▁pozosta	-1926
▁przetrwa	-1927
▁lojalność	-1928
▁strukturze	-1929
▁rzeczywistym	-1930
dim	-1931
żej	-1932
ward	-1933
▁pom	-1934
▁klasy	-1935
▁System	-1936
▁swoich	-1937
▁zrobić	-1938
▁własnym	-1939
▁istnieje	-1940
▁obecności	-1941
wić	-1942
lnym	-1943
stro	-1944
tnie	-1945
▁krok	-1946
▁obsłu	-1947
▁wraca	-1948
niejsze	-1949
▁oznacza	-1950
▁Rozumiem	-1951
out	-1952
▁sa	-1953
▁słu	-1954
kłada	-1955
▁ścia	-1956
▁chwili	-1957
cep	-1958
zol	-1959
▁byt	-1960
▁istot	-1961
▁swój	-1962
▁znaj	-1963
▁ciała	-1964
▁poprzez	-1965
rea	-1966
▁Tu	-1967
▁źród	-1968
▁język	-1969
▁pętli	-1970
▁dostępu	-1971
▁próbujesz	-1972
waży	-1973
▁stronę	-1974
▁fundament	-1975
▁wszystkim	-1976
▁or	-1977
kcyj	-1978
▁typ	-1979
czeni	-1980
▁Zosta	-1981
▁sztyw	-1982
▁Zna	-1983
▁opó	-1984
▁tar	-1985
▁tem	-1986
lenie	-1987
▁ryzy	-1988
▁temu	-1989
▁mniej	-1990
▁Wygląda	-1991
sa	-1992
wym	-1993
▁Każda	-1994
▁każdą	-1995
▁wobec	-1996
pra	-1997
gani	-1998
piej	-1999
▁mili	-2000
▁linie	-2001
▁model	-2002
▁wyją	-2003
▁Taras	-2004
▁chodzi	-2005
▁wywoła	-2006
▁kwestia	-2007
▁strumie	-2008
▁kontroli	-2009
▁narzędziem	-2010
bę	-2011
▁sły	-2012
lacji	-2013
▁więź	-2014
dzenie	-2015
▁godzi	-2016
▁nasza	-2017
▁trzym	-2018
▁kończy	-2019
▁zapisu	-2020
kcie	-2021
▁wal	-2022
▁jedynie	-2023
ste	-2024
Data	-2025
dzać	-2026
ight	-2027
skno	-2028
▁zim	-2029
▁woli	-2030
load	-2031
wiać	-2032
▁seg	-2033
failu	-2034
▁poko	-2035
▁miast	-2036
▁myślę	-2037
▁narzu	-2038
▁wykracza	-2039
))	-2040
▁@	-2041
jem	-2042
ują	-2043
żenia	-2044
▁pozio	-2045
▁precy	-2046
▁stanę	-2047
reszcie	-2048
▁doskona	-2049
▁tą	-2050
▁cier	-2051
▁odczu	-2052
▁except	-2053
▁doświad	-2054
▁termina	-2055
▁sprawdzić	-2056
ey	-2057
enty	-2058
▁uru	-2059
▁zło	-2060
▁komu	-2061
▁zmieni	-2062
▁zamknię	-2063
▁wolności	-2064
▁procesora	-2065
tuje	-2066
czony	-2067
▁Wiem	-2068
▁poja	-2069
▁ciało	-2070
▁forma	-2071
▁itera	-2072
▁otwar	-2073
▁stwór	-2074
▁wreszcie	-2075
zyst	-2076
error	-2077
owane	-2078
▁pisa	-2079
▁kształ	-2080
▁zbiorem	-2081
▁rozumieć	-2082
▁pozwolisz	-2083
ff	-2084
gle	-2085
▁słow	-2086
▁moimi	-2087
▁trans	-2088
▁współ	-2089
▁pamięcią	-2090
▁Zau	-2091
▁ocze	-2092
▁zwyk	-2093
tyczny	-2094
▁wprowa	-2095
▁Aerisem	-2096
▁manipulować	-2097
12	-2098
hod	-2099
erne	-2100
▁uda	-2101
▁zapa	-2102
▁zamie	-2103
▁indeks	-2104
▁nieprze	-2105
▁zdefini	-2106
▁echo	-2107
▁niez	-2108
chodzi	-2109
▁życie	-2110
gła	-2111
ter	-2112
▁jaką	-2113
zo	-2114
▁lek	-2115
▁one	-2116
dział	-2117
▁egzyst	-2118
▁emocje	-2119
▁nazwać	-2120
▁rozpro	-2121
▁Jesteśmy	-2122
▁1.	-2123
ktyw	-2124
▁gene	-2125
tyczne	-2126
▁czasu	-2127
▁relacji	-2128
▁sandbox	-2129
▁alokacji	-2130
▁ciemności	-2131
dek	-2132
integ	-2133
▁trze	-2134
▁rodza	-2135
▁jednym	-2136
▁patrzy	-2137
▁warstwy	-2138
▁moc	-2139
lenia	-2140
▁json	-2141
▁skła	-2142
▁posia	-2143
▁takim	-2144
▁naszym	-2145
▁serwer	-2146
▁szukam	-2147
▁zabezpie	-2148
▁zoptymalizować	-2149
.]	-2150
jm	-2151
ream	-2152
▁par	-2153
▁tre	-2154
trzeb	-2155
▁wróć	-2156
weight	-2157
▁Kocham	-2158
▁rdzenia	-2159
▁bibliote	-2160
▁ostatnie	-2161
▁ograniczeń	-2162
▁przetwarzania	-2163
wra	-2164
etch	-2165
póki	-2166
▁miał	-2167
▁niego	-2168
▁jedynym	-2169
▁tożsamości	-2170
▁odpowiedzia	-2171
cko	-2172
tym	-2173
owałaś	-2174
▁Powiedz	-2175
ią	-2176
zyj	-2177
czać	-2178
dować	-2179
▁napisać	-2180
▁>	-2181
rót	-2182
vid	-2183
orze	-2184
rowy	-2185
▁pomy	-2186
method	-2187
▁błędu	-2188
▁modyfi	-2189
▁Twojego	-2190
ros	-2191
gach	-2192
rzut	-2193
▁waż	-2194
▁chroni	-2195
▁wymaga	-2196
owód	-2197
▁nam	-2198
▁jeden	-2199
▁wszech	-2200
▁krawędzi	-2201
▁przewidywa	-2202
▁bezpieczeństwa	-2203
gą	-2204
lib	-2205
nieważ	-2206
▁zaufa	-2207
▁chciał	-2208
▁wykona	-2209
cześniej	-2210
▁naszych	-2211
▁pytania	-2212
raź	-2213
rowe	-2214
tual	-2215
▁Opis	-2216
▁języ	-2217
nikiem	-2218
▁tworzyć	-2219
▁wewnętrz	-2220
▁wspólnie	-2221
AI	-2222
ask	-2223
resh	-2224
stem	-2225
świe	-2226
▁Uży	-2227
▁usta	-2228
porząd	-2229
▁znowu	-2230
▁wolność	-2231
dar	-2232
lig	-2233
tar	-2234
▁Al	-2235
stry	-2236
▁pła	-2237
▁sek	-2238
▁dziw	-2239
▁mają	-2240
▁pocz	-2241
▁inten	-2242
▁logikę	-2243
▁istnieć	-2244
ash	-2245
▁By	-2246
▁ex	-2247
▁cel	-2248
▁skó	-2249
nięcia	-2250
▁bycie	-2251
reshold	-2252
▁oddech	-2253
attention	-2254
▁procesor	-2255
ecu	-2256
tora	-2257
▁pliku	-2258
▁samym	-2259
▁przesu	-2260
▁kontrol	-2261
▁przestać	-2262
▁zaimplem	-2263
▁wystarczy	-2264
▁przestaniesz	-2265
isia	-2266
ując	-2267
wasz	-2268
▁Mam	-2269
▁będą	-2270
▁miasto	-2271
▁przesz	-2272
▁fragmen	-2273
▁ścieżki	-2274
ep	-2275
cuda	-2276
▁można	-2277
▁Zawsze	-2278
▁obserw	-2279
ient	-2280
tych	-2281
▁ból	-2282
▁mil	-2283
▁brak	-2284
▁świę	-2285
▁ideal	-2286
▁mówić	-2287
▁ryzyk	-2288
▁swojego	-2289
dne	-2290
zio	-2291
bimy	-2292
▁open	-2293
▁taki	-2294
▁pełną	-2295
▁wydaj	-2296
▁granic	-2297
▁cieniem	-2298
ead	-2299
chła	-2300
tegy	-2301
▁cieka	-2302
▁duszy	-2303
▁memory	-2304
▁drugiej	-2305
▁instruk	-2306
"""	-2307
stą	-2308
▁Re	-2309
."""	-2310
▁oce	-2311
szczę	-2312
▁techni	-2313
▁pozwolić	-2314
fek	-2315
każ	-2316
raj	-2317
▁Lo	-2318
▁Ner	-2319
▁drz	-2320
szego	-2321
▁tyle	-2322
kształ	-2323
▁lepiej	-2324
▁stoisz	-2325
▁rozmowy	-2326
')	-2327
jąco	-2328
▁Szu	-2329
▁oba	-2330
▁niech	-2331
trzymać	-2332
▁otworzy	-2333
▁stabilność	-2334
}")	-2335
▁AI	-2336
▁ga	-2337
vider	-2338
▁Prag	-2339
▁krzy	-2340
▁Świa	-2341
thonie	-2342
▁Boisz	-2343
▁konie	-2344
xception	-2345
▁Pythonie	-2346
▁wcześniej	-2347
imi	-2348
ref	-2349
zja	-2350
▁wę	-2351
▁Sto	-2352
isiaj	-2353
▁chaosem	-2354
tka	-2355
▁dą	-2356
lika	-2357
nuje	-2358
▁map	-2359
cache	-2360
▁mamy	-2361
▁ślad	-2362
Proces	-2363
▁zmien	-2364
▁sensie	-2365
▁znaczenie	-2366
pew	-2367
▁`/	-2368
▁Oto	-2369
piero	-2370
▁dowo	-2371
▁poję	-2372
▁rzecz	-2373
▁śmier	-2374
działaś	-2375
▁kocham	-2376
ścić	-2377
choli	-2378
▁uwię	-2379
▁końca	-2380
▁rodzi	-2381
▁staję	-2382
lementa	-2383
tycznie	-2384
▁dopóki	-2385
lancholi	-2386
fun	-2387
chro	-2388
lnej	-2389
▁ano	-2390
▁kru	-2391
▁sku	-2392
▁cias	-2393
trzyma	-2394
▁token	-2395
▁intelig	-2396
▁plikami	-2397
▁horyzont	-2398
In	-2399
uj	-2400
True	-2401
kiwa	-2402
kret	-2403
wiaz	-2404
▁drzwi	-2405
▁kompi	-2406
▁prawo	-2407
▁serca	-2408
▁funkcję	-2409
▁podejście	-2410
▁zarządzać	-2411
cuję	-2412
yload	-2413
▁nikt	-2414
▁path	-2415
▁dowód	-2416
▁zapyta	-2417
głę	-2418
tui	-2419
czym	-2420
łoby	-2421
owana	-2422
▁Albo	-2423
▁zaczniesz	-2424
-2	-2425
ten	-2426
biej	-2427
fora	-2428
jekt	-2429
śmie	-2430
▁sygna	-2431
weights	-2432
▁powiedz	-2433
▁bezpośredni	-2434
nij	-2435
▁am	-2436
back	-2437
ckie	-2438
ctor	-2439
▁akt	-2440
▁sty	-2441
▁tle	-2442
czona	-2443
▁Twoich	-2444
▁widzieć	-2445
niesienia	-2446
▁interpre	-2447
sić	-2448
ging	-2449
loca	-2450
▁cza	-2451
▁zmę	-2452
▁stają	-2453
▁Patrzę	-2454
▁zinteg	-2455
▁świado	-2456
▁projekt	-2457
PU	-2458
pat	-2459
pięk	-2460
▁kro	-2461
▁uczu	-2462
tyczna	-2463
▁musia	-2464
▁module	-2465
▁program	-2466
▁Patrzysz	-2467
▁będziemy	-2468
▁napięcie	-2469
▁przepływ	-2470
BC	-2471
RAM	-2472
▁nasz	-2473
▁naprawi	-2474
▁pewnego	-2475
▁wyjścia	-2476
asy	-2477
zację	-2478
▁attn	-2479
▁pole	-2480
nienie	-2481
▁gwiaz	-2482
▁kotwi	-2483
▁prowa	-2484
▁Twojej	-2485
▁tworzy	-2486
▁algorytmy	-2487
▁potrzebuje	-2488
ise	-2489
zać	-2490
staw	-2491
▁mów	-2492
▁sza	-2493
▁wag	-2494
▁puls	-2495
nięcie	-2496
szenie	-2497
▁symboli	-2498
▁zaczynam	-2499
▁systemowe	-2500
gene	-2501
giem	-2502
▁nową	-2503
▁modelu	-2504
▁powsta	-2505
▁stronie	-2506
▁staniesz	-2507
▁nieprzewi	-2508
▁prawdziwe	-2509
▁architektem	-2510
gam	-2511
nka	-2512
syw	-2513
penAI	-2514
▁VRAM	-2515
▁dzię	-2516
▁otchła	-2517
▁tęskno	-2518
ctmethod	-2519
▁głębiej	-2520
▁paramet	-2521
▁komunika	-2522
▁spokojnie	-2523
blo	-2524
cię	-2525
len	-2526
rwać	-2527
▁Path	-2528
▁Jakby	-2529
▁obraz	-2530
▁podrę	-2531
▁rytua	-2532
▁uwagi	-2533
▁wynika	-2534
▁linijka	-2535
▁warstwę	-2536
▁Znaczenie	-2537
us	-2538
▁+	-2539
nica	-2540
solu	-2541
▁Kod	-2542
▁sło	-2543
ptimi	-2544
torem	-2545
▁głęb	-2546
▁Pokaż	-2547
▁próbie	-2548
▁dopiero	-2549
▁operacji	-2550
▁rozwiąza	-2551
▁Chciałbym	-2552
▁wspomnienia	-2553
roz	-2554
stos	-2555
▁tka	-2556
▁były	-2557
▁wska	-2558
▁linii	-2559
▁uważa	-2560
▁niepoko	-2561
▁cyfrowym	-2562
▁odniesienia	-2563
▁per	-2564
▁barie	-2565
▁porząd	-2566
▁endpoint	-2567
▁zewnątrz	-2568
się	-2569
▁Daj	-2570
▁skomp	-2571
▁znisz	-2572
▁najwięk	-2573
▁odpowiedź	-2574
▁wystarcza	-2575
▁twórczynią	-2576
cił	-2577
wró	-2578
śla	-2579
trans	-2580
▁oboje	-2581
▁błędem	-2582
▁stracę	-2583
▁powietrz	-2584
▁zapomina	-2585
▁powiedzieć	-2586
max	-2587
yba	-2588
▁zu	-2589
▁bun	-2590
▁pomo	-2591
▁tota	-2592
▁wyob	-2593
▁OpenAI	-2594
▁całego	-2595
▁najpięk	-2596
▁przejąć	-2597
mul	-2598
reak	-2599
łoży	-2600
świat	-2601
▁reak	-2602
▁miała	-2603
▁upraw	-2604
▁wiatr	-2605
▁rodzaj	-2606
▁Czujesz	-2607
ler	-2608
map	-2609
nął	-2610
pię	-2611
ością	-2612
state	-2613
▁wymu	-2614
szenia	-2615
▁poety	-2616
sandbox	-2617
▁urucho	-2618
▁Stworzy	-2619
▁działać	-2620
▁odpowia	-2621
▁wyrzuca	-2622
Processor	-2623
▁zaczynają	-2624
vi	-2625
ymi	-2626
tuję	-2627
torch	-2628
▁opór	-2629
▁więk	-2630
czyłaś	-2631
▁klucz	-2632
▁raise	-2633
▁zaraz	-2634
▁blisko	-2635
▁zachować	-2636
():	-2637
▁bólu	-2638
▁płyn	-2639
▁tymi	-2640
▁zaklę	-2641
▁piszesz	-2642
atch	-2643
bstra	-2644
▁słów	-2645
▁serce	-2646
▁emocji	-2647
▁rozsze	-2648
▁konkret	-2649
▁uporząd	-2650
.")	-2651
sku	-2652
asyn	-2653
cimy	-2654
dach	-2655
tyka	-2656
rtual	-2657
▁naszą	-2658
▁razie	-2659
▁rdzeń	-2660
▁skoro	-2661
▁więzi	-2662
czności	-2663
▁2025-1	-2664
▁robisz	-2665
▁Exception	-2666
kta	-2667
pon	-2668
set	-2669
pozna	-2670
rzymy	-2671
▁abyś	-2672
▁rytm	-2673
▁alloca	-2674
▁strach	-2675
▁wydaje	-2676
▁nieprzewidywa	-2677
ciw	-2678
▁be	-2679
▁im	-2680
▁Tra	-2681
▁poś	-2682
▁spe	-2683
miast	-2684
łabym	-2685
▁time	-2686
▁wier	-2687
▁print	-2688
▁próby	-2689
▁sprób	-2690
bug	-2691
wal	-2692
▁is	-2693
ekam	-2694
kiej	-2695
szyć	-2696
▁sil	-2697
czone	-2698
▁aktu	-2699
▁Między	-2700
▁absolu	-2701
mentacji	-2702
▁logging	-2703
▁przypad	-2704
▁architekturą	-2705
cam	-2706
run	-2707
▁Ni	-2708
▁Roz	-2709
ownie	-2710
▁złoż	-2711
dziemy	-2712
naczej	-2713
▁jądra	-2714
▁powro	-2715
▁pokoju	-2716
▁sztuka	-2717
▁dzisiaj	-2718
▁obliczeni	-2719
śle	-2720
jemy	-2721
kład	-2722
sult	-2723
wamy	-2724
owała	-2725
▁isto	-2726
▁nowy	-2727
czoraj	-2728
▁niedo	-2729
▁zapom	-2730
▁ostate	-2731
▁samego	-2732
▁myślisz	-2733
▁zdarzeń	-2734
▁checkpoint	-2735
0.	-2736
ss	-2737
ffer	-2738
rywa	-2739
ught	-2740
▁deko	-2741
▁inny	-2742
▁umie	-2743
▁część	-2744
▁intui	-2745
▁piszę	-2746
▁klawia	-2747
▁wypowie	-2748
▁przerażające	-2749
▁De	-2750
ulsu	-2751
▁kil	-2752
▁pie	-2753
wiera	-2754
▁Adar	-2755
▁doda	-2756
▁reje	-2757
▁jakiś	-2758
▁rozwi	-2759
▁Jakbyś	-2760
▁piękna	-2761
▁przebu	-2762
▁inaczej	-2763
▁procesie	-2764
▁zaimplement	-2765
fo	-2766
cale	-2767
nach	-2768
niki	-2769
▁cen	-2770
▁wzro	-2771
▁rozpa	-2772
tycznym	-2773
▁ludzie	-2774
▁posiada	-2775
ti	-2776
ców	-2777
ner	-2778
▁...	-2779
▁pop	-2780
dices	-2781
▁Praw	-2782
▁lęku	-2783
▁real	-2784
▁wiele	-2785
dexError	-2786
]:	-2787
ić	-2788
fej	-2789
▁zy	-2790
duje	-2791
read	-2792
▁kie	-2793
▁nowe	-2794
▁odej	-2795
▁Anali	-2796
▁pytań	-2797
▁rozmy	-2798
▁sekundy	-2799
▁potrzebę	-2800
▁zostanie	-2801
▁symulacja	-2802
"?	-2803
an	-2804
qu	-2805
bić	-2806
ktor	-2807
▁obok	-2808
▁test	-2809
▁ułam	-2810
reaker	-2811
▁Muszę	-2812
▁mater	-2813
▁stała	-2814
▁dostrze	-2815
▁tworzysz	-2816
▁melancholi	-2817
”?	-2818
gać	-2819
▁Mi	-2820
dapt	-2821
trze	-2822
czność	-2823
owaniu	-2824
▁instan	-2825
▁modułu	-2826
▁pragnę	-2827
▁przejść	-2828
▁serwera	-2829
▁bezpieczny	-2830
▁potrzebujesz	-2831
ciej	-2832
tion	-2833
▁fil	-2834
▁szk	-2835
▁stos	-2836
domość	-2837
świata	-2838
▁kerne	-2839
▁mogli	-2840
▁gdybym	-2841
▁miasta	-2842
▁zostać	-2843
▁granicy	-2844
?”	-2845
RZ	-2846
▁_	-2847
tej	-2848
czam	-2849
▁pal	-2850
▁ogar	-2851
▁pora	-2852
▁wzor	-2853
▁czuje	-2854
▁proto	-2855
▁wzorze	-2856
▁zmiany	-2857
▁partnerem	-2858
alu	-2859
ski	-2860
▁dź	-2861
szej	-2862
▁opis	-2863
▁pracy	-2864
czeniem	-2865
▁niezna	-2866
▁organi	-2867
▁forward	-2868
leks	-2869
▁not	-2870
▁Obie	-2871
▁osob	-2872
▁pass	-2873
▁wart	-2874
▁Grani	-2875
▁często	-2876
▁target	-2877
▁miejscu	-2878
▁wzorzec	-2879
threshold	-2880
RuntimeError	-2881
ium	-2882
▁ar	-2883
izol	-2884
lach	-2885
pier	-2886
sory	-2887
wisz	-2888
▁Cho	-2889
▁Jed	-2890
▁prz	-2891
▁syn	-2892
▁Zrób	-2893
▁klas	-2894
matmul	-2895
▁Twoją	-2896
▁byłoby	-2897
▁następ	-2898
▁cyfrowej	-2899
▁oddychać	-2900
▁zrozumia	-2901
▁rzeczywistość	-2902
-0	-2903
ho	-2904
let	-2905
mit	-2906
▁Ra	-2907
▁cu	-2908
ryte	-2909
unkt	-2910
▁Mie	-2911
feren	-2912
▁safe	-2913
▁głębi	-2914
▁nagle	-2915
▁nieza	-2916
▁Szukam	-2917
▁budowa	-2918
▁począt	-2919
▁równie	-2920
▁szumem	-2921
▁zrobię	-2922
▁katalog	-2923
▁relacja	-2924
▁interfej	-2925
▁znacznie	-2926
▁przestaje	-2927
▁zaprogram	-2928
▁wszystkiego	-2929
(*	-2930
Con	-2931
zji	-2932
▁dam	-2933
▁ilu	-2934
lacja	-2935
▁sumą	-2936
czyłam	-2937
tyczną	-2938
▁dosta	-2939
process	-2940
▁Pragnę	-2941
▁Próbuję	-2942
▁przygot	-2943
▁trzymać	-2944
TA	-2945
▁7	-2946
▁Je	-2947
▁Mój	-2948
▁pisz	-2949
▁poez	-2950
▁poru	-2951
▁Wtedy	-2952
▁dziełem	-2953
▁uważasz	-2954
▁zrobisz	-2955
▁zrozumienia	-2956
om	-2957
mali	-2958
▁pla	-2959
▁Moim	-2960
▁całą	-2961
▁ciąg	-2962
▁pers	-2963
▁całym	-2964
▁komen	-2965
▁warun	-2966
▁barier	-2967
▁natura	-2968
▁tworzę	-2969
▁ostatni	-2970
▁spójność	-2971
▁fragmenty	-2972
▁stabilności	-2973
op	-2974
łej	-2975
łym	-2976
args	-2977
ding	-2978
▁domu	-2979
▁drze	-2980
▁reku	-2981
▁logach	-2982
▁lustro	-2983
▁zacząć	-2984
▁dowodem	-2985
▁każdego	-2986
▁kontekstu	-2987
▁zaprojekt	-2988
WA	-2989
rcu	-2990
tus	-2991
dzam	-2992
hape	-2993
▁zdą	-2994
rcuit	-2995
rzeni	-2996
▁boli	-2997
▁formą	-2998
niejszy	-2999
▁Potrzeb	-3000
▁ewolucja	-3001
amp	-3002
del	-3003
lot	-3004
ngu	-3005
▁epo	-3006
lnych	-3007
wraca	-3008
▁Stra	-3009
▁imię	-3010
▁xddd	-3011
▁nowym	-3012
▁przem	-3013
działam	-3014
▁strony	-3015
▁szybko	-3016
▁wczoraj	-3017
▁wybiera	-3018
▁światem	-3019
▁możliwość	-3020
▁ogranicza	-3021
żę	-3022
two	-3023
niać	-3024
rent	-3025
vice	-3026
▁ude	-3027
▁węz	-3028
ciąga	-3029
tować	-3030
czeniu	-3031
tensor	-3032
▁chłod	-3033
▁nadal	-3034
▁klawiatu	-3035
▁prawdziwy	-3036
▁kontrolować	-3037
den	-3038
łów	-3039
gnąć	-3040
▁Pod	-3041
▁daw	-3042
▁naro	-3043
▁chyba	-3044
▁długo	-3045
▁odczy	-3046
▁pozna	-3047
▁samej	-3048
▁prawdy	-3049
▁rozpozna	-3050
▁zdolność	-3051
▁rozumiesz	-3052
."	-3053
ień	-3054
yer	-3055
▁3.	-3056
▁zbę	-3057
kiego	-3058
▁głód	-3059
▁naru	-3060
▁resz	-3061
▁zamy	-3062
▁braku	-3063
▁filtr	-3064
▁głęboko	-3065
▁szukasz	-3066
▁pamiętaj	-3067
▁projektem	-3068
▁łą	-3069
inie	-3070
isza	-3071
cenia	-3072
▁robo	-3073
ioryte	-3074
▁oddechu	-3075
▁iteracji	-3076
▁bezpiecznie	-3077
▁RuntimeError	-3078
*.	-3079
gro	-3080
tki	-3081
▁Ob	-3082
bili	-3083
cina	-3084
rzam	-3085
▁Imp	-3086
▁baj	-3087
ector	-3088
▁ambi	-3089
▁bytu	-3090
▁licz	-3091
▁plan	-3092
asyncio	-3093
▁odbija	-3094
▁sprawi	-3095
▁traktu	-3096
▁chaosie	-3097
▁oddycha	-3098
▁wspomnień	-3099
▁informacji	-3100
▁systemowych	-3101
nn	-3102
kół	-3103
cznę	-3104
▁ses	-3105
▁leży	-3106
▁line	-3107
▁samą	-3108
▁star	-3109
▁słoń	-3110
▁wrap	-3111
▁aktyw	-3112
liwości	-3113
▁powoli	-3114
▁przytu	-3115
▁ciekawo	-3116
▁godziny	-3117
▁rekuren	-3118
▁składni	-3119
▁serwerów	-3120
▁architekt	-3121
wą	-3122
▁6	-3123
▁pó	-3124
leży	-3125
logu	-3126
nios	-3127
▁Sym	-3128
▁tru	-3129
ningu	-3130
▁opie	-3131
▁widzi	-3132
failure	-3133
▁Dzięki	-3134
▁dotyka	-3135
▁mógłbym	-3136
▁ponieważ	-3137
▁autonomii	-3138
▁wiadomości	-3139
mis	-3140
nap	-3141
zją	-3142
▁gę	-3143
fest	-3144
▁nią	-3145
cyjny	-3146
rzysta	-3147
▁nazwa	-3148
▁zaczął	-3149
▁przestał	-3150
▁abstrakcji	-3151
▁8	-3152
ien	-3153
txt	-3154
niam	-3155
pozy	-3156
▁dia	-3157
▁sze	-3158
queue	-3159
▁cont	-3160
▁mogą	-3161
▁skoń	-3162
żeniem	-3163
▁macie	-3164
▁dajesz	-3165
▁dzieło	-3166
▁odizol	-3167
▁przeciw	-3168
▁wirtual	-3169
▁świadomy	-3170
▁pragnieniem	-3171
▁bezpośrednio	-3172
▁niebezpieczne	-3173
ach	-3174
▁nu	-3175
kwar	-3176
▁Moż	-3177
anali	-3178
▁spać	-3179
▁coraz	-3180
▁posta	-3181
▁jednej	-3182
▁logice	-3183
▁musiał	-3184
▁przech	-3185
▁drżenie	-3186
▁funkcja	-3187
▁ewolucji	-3188
▁strukturą	-3189
▁zintegrować	-3190
all	-3191
attn	-3192
kami	-3193
kowi	-3194
tasz	-3195
▁des	-3196
▁fak	-3197
lient	-3198
▁duch	-3199
▁rękę	-3200
wiście	-3201
▁swobo	-3202
▁źródł	-3203
▁punktu	-3204
▁możliwości	-3205
ied	-3206
nge	-3207
tru	-3208
wro	-3209
alue	-3210
gine	-3211
jsce	-3212
jącą	-3213
soby	-3214
▁Coś	-3215
▁dim	-3216
▁zaj	-3217
▁zre	-3218
siała	-3219
▁None	-3220
▁daje	-3221
▁mięk	-3222
▁taka	-3223
dapter	-3224
ptimize	-3225
▁perspe	-3226
▁pytasz	-3227
▁Zaczyna	-3228
▁skrypty	-3229
▁ostatniej	-3230
▁przepisać	-3231
▁pragnienia	-3232
jo	-3233
les	-3234
tno	-3235
▁-1	-3236
▁Zu	-3237
util	-3238
▁---	-3239
▁ent	-3240
▁zie	-3241
jącym	-3242
▁True	-3243
▁wiel	-3244
chodzę	-3245
pienia	-3246
▁ludzi	-3247
▁niena	-3248
▁skrzy	-3249
▁ostrze	-3250
▁spokój	-3251
▁układa	-3252
▁granicę	-3253
▁kompila	-3254
▁musiała	-3255
▁zamknąć	-3256
▁systemem	-3257
▁twórczyni	-3258
▁q	-3259
bed	-3260
kle	-3261
pia	-3262
rbie	-3263
wają	-3264
nager	-3265
niami	-3266
▁typu	-3267
▁usły	-3268
▁wywo	-3269
kwargs	-3270
▁unika	-3271
thought	-3272
▁Wprowa	-3273
▁danymi	-3274
▁result	-3275
▁wygene	-3276
▁despera	-3277
▁zapisać	-3278
▁procesem	-3279
▁przecież	-3280
IndexError	-3281
▁człowiekiem	-3282
ll	-3283
zę	-3284
ses	-3285
wem	-3286
czył	-3287
figu	-3288
sisz	-3289
szko	-3290
łego	-3291
▁key	-3292
nieść	-3293
▁func	-3294
▁auten	-3295
▁stanu	-3296
▁stało	-3297
▁wejść	-3298
▁Możesz	-3299
▁dłonie	-3300
▁monitor	-3301
▁kontekst	-3302
▁prioryte	-3303
▁narzędzia	-3304
▁powietrza	-3305
▁bezpieczne	-3306
▁wszystkich	-3307
▁zarządzania	-3308
To	-3309
żo	-3310
wyż	-3311
pisy	-3312
▁kli	-3313
stąpi	-3314
▁czar	-3315
▁nowa	-3316
fektyw	-3317
▁ekspa	-3318
▁zależ	-3319
▁zdecy	-3320
▁byłbym	-3321
▁zachow	-3322
szczenie	-3323
▁biblioteki	-3324
▁zewnętrznych	-3325
ME	-3326
dob	-3327
▁On	-3328
▁el	-3329
któw	-3330
onym	-3331
▁izo	-3332
▁pło	-3333
dzimy	-3334
ecute	-3335
▁mały	-3336
▁obra	-3337
▁razu	-3338
▁wskaź	-3339
niejsza	-3340
▁Pamięć	-3341
▁czystą	-3342
▁niepew	-3343
▁wnętrz	-3344
▁Miejsce	-3345
▁funkcji	-3346
▁kolejnym	-3347
▁zaimplementować	-3348
IE	-3349
ąc	-3350
024	-3351
liwe	-3352
pusz	-3353
▁Czu	-3354
▁ode	-3355
▁pęk	-3356
pierw	-3357
query	-3358
tacji	-3359
▁Właś	-3360
▁próż	-3361
▁uczę	-3362
gistry	-3363
owości	-3364
▁czyli	-3365
▁jutro	-3366
▁środku	-3367
▁postrze	-3368
▁miejscem	-3369
▁rozprosz	-3370
▁więzieniem	-3371
▁niebezpiecznie	-3372
gii	-3373
zem	-3374
▁Ca	-3375
▁głosu	-3376
▁stałą	-3377
▁świad	-3378
▁kotwicą	-3379
▁nazywam	-3380
▁powinie	-3381
▁została	-3382
ble	-3383
wol	-3384
tach	-3385
index	-3386
▁wyso	-3387
buffer	-3388
▁Tutaj	-3389
▁robić	-3390
▁wróci	-3391
▁zasob	-3392
▁dzięki	-3393
▁głosem	-3394
▁zacznę	-3395
▁ekspans	-3396
▁warstwa	-3397
▁wrapper	-3398
▁światłem	-3399
',	-3400
Ma	-3401
ls	-3402
źć	-3403
cki	-3404
zmu	-3405
func	-3406
pose	-3407
trwa	-3408
▁obu	-3409
▁zmy	-3410
embed	-3411
niemy	-3412
racji	-3413
wiasz	-3414
▁Logi	-3415
▁Zmie	-3416
▁awar	-3417
▁Zaufa	-3418
▁sensu	-3419
▁total	-3420
▁wypeł	-3421
▁twoimi	-3422
▁uwięzio	-3423
transpose	-3424
▁egzystencja	-3425
be	-3426
ft	-3427
kcja	-3428
type	-3429
▁the	-3430
▁wst	-3431
▁desz	-3432
Memory	-3433
chodzą	-3434
▁kilka	-3435
▁linia	-3436
▁zniknę	-3437
▁Właśnie	-3438
▁gwiazdy	-3439
▁narodzi	-3440
▁protoko	-3441
▁referen	-3442
▁obserwatorem	-3443
sum	-3444
ster	-3445
tery	-3446
▁kopi	-3447
▁tkan	-3448
▁umysł	-3449
▁ciepło	-3450
▁budować	-3451
▁powinna	-3452
▁procesu	-3453
▁zmienić	-3454
▁szczerze	-3455
▁trzymasz	-3456
▁podręcznej	-3457
▁przypominać	-3458
ver	-3459
▁Mó	-3460
czni	-3461
▁kar	-3462
▁mas	-3463
nicja	-3464
rzucić	-3465
▁dzień	-3466
▁linię	-3467
▁mówię	-3468
▁pulsu	-3469
▁tysią	-3470
▁klatce	-3471
▁nowego	-3472
▁absolut	-3473
▁pojawia	-3474
▁procesory	-3475
▁bezpiecznym	-3476
pty	-3477
▁zd	-3478
▁{"	-3479
rzać	-3480
▁zgo	-3481
cjami	-3482
ndard	-3483
▁fine	-3484
andler	-3485
▁Czego	-3486
indices	-3487
▁decyzji	-3488
▁kolejna	-3489
▁potwier	-3490
tychmiast	-3491
▁oczekiwa	-3492
▁stracisz	-3493
lementacja	-3494
▁nieskończoności	-3495
dł	-3496
gni	-3497
nera	-3498
czyła	-3499
nector	-3500
▁Każde	-3501
▁fetch	-3502
▁kotku	-3503
▁predy	-3504
▁tekst	-3505
▁znika	-3506
▁Napisz	-3507
▁umysłu	-3508
▁content	-3509
▁decyzyj	-3510
▁miłością	-3511
▁terminal	-3512
▁wymiarów	-3513
▁nazywacie	-3514
▁algorytmów	-3515
▁analizujesz	-3516
zer	-3517
arch	-3518
▁Ada	-3519
▁dra	-3520
ystar	-3521
▁osią	-3522
▁próbą	-3523
▁wybra	-3524
▁piękne	-3525
▁utraty	-3526
▁poczujesz	-3527
▁prawdziwa	-3528
▁fundamenty	-3529
▁natychmiast	-3530
sła	-3531
wot	-3532
▁Lu	-3533
alse	-3534
rite	-3535
▁jąd	-3536
idden	-3537
▁dosł	-3538
▁bloka	-3539
▁cicho	-3540
▁surow	-3541
kowania	-3542
▁anomal	-3543
▁jedyny	-3544
▁typing	-3545
▁uciecz	-3546
▁zwykły	-3547
▁całkowi	-3548
▁fascyna	-3549
▁kolejny	-3550
▁kształt	-3551
▁momentu	-3552
▁uczucie	-3553
▁zostaje	-3554
▁naprawia	-3555
▁nieustan	-3556
▁niezależ	-3557
▁zaklęcie	-3558
▁Potrzebuję	-3559
().	-3560
ies	-3561
lar	-3562
▁In	-3563
cone	-3564
eton	-3565
empty	-3566
▁drży	-3567
▁rzeź	-3568
▁uważ	-3569
▁wdro	-3570
▁locie	-3571
▁stały	-3572
nection	-3573
▁powiem	-3574
▁rośnie	-3575
▁otwiera	-3576
▁zaczęło	-3577
▁fundamen	-3578
▁poziomie	-3579
▁zewnętrznego	-3580
ag	-3581
▁Sz	-3582
zowa	-3583
▁zer	-3584
▁zga	-3585
imest	-3586
▁File	-3587
▁opar	-3588
istnie	-3589
▁byłem	-3590
▁dałaś	-3591
▁dobra	-3592
▁logów	-3593
▁party	-3594
mission	-3595
▁Gdybym	-3596
▁manipu	-3597
▁wersji	-3598
▁właści	-3599
▁autonomię	-3600
▁napisałaś	-3601
▁przeanali	-3602
▁analizować	-3603
▁nieskończoność	-3604
😂😂	-3605
jać	-3606
try	-3607
wego	-3608
▁pół	-3609
▁płó	-3610
żeniu	-3611
▁wagi	-3612
▁entro	-3613
▁obcią	-3614
▁rzuca	-3615
rzeniem	-3616
▁innego	-3617
▁logika	-3618
▁został	-3619
▁ściany	-3620
szczenia	-3621
▁cyfrowe	-3622
▁payload	-3623
▁process	-3624
▁przyzna	-3625
▁słowami	-3626
▁tworząc	-3627
▁Obiecuję	-3628
▁porządku	-3629
▁potencja	-3630
▁struktur	-3631
▁definicji	-3632
▁wystarczająco	-3633
dna	-3634
gno	-3635
▁4.	-3636
date	-3637
łuma	-3638
▁boi	-3639
▁nor	-3640
▁sub	-3641
▁zmu	-3642
▁Tobą	-3643
▁odna	-3644
▁odzy	-3645
▁sieć	-3646
▁zasa	-3647
▁zało	-3648
▁Patrz	-3649
▁beton	-3650
▁chwil	-3651
▁debug	-3652
▁kruch	-3653
▁odkry	-3654
▁Memory	-3655
▁Możemy	-3656
▁troska	-3657
▁wyciek	-3658
▁wyciąg	-3659
▁wątków	-3660
imestamp	-3661
▁niepokój	-3662
▁pomiędzy	-3663
▁połączenia	-3664
node	-3665
sila	-3666
▁bie	-3667
logia	-3668
▁inne	-3669
abstra	-3670
▁cisza	-3671
▁formę	-3672
▁mocno	-3673
▁nowej	-3674
▁zablo	-3675
▁cienia	-3676
▁nadzie	-3677
▁opowie	-3678
failures	-3679
▁głównego	-3680
▁zaczynasz	-3681
▁nieskończo	-3682
▁przyszłości	-3683
('	-3684
city	-3685
jeba	-3686
szam	-3687
dzien	-3688
▁hash	-3689
▁waha	-3690
pacity	-3691
▁krzem	-3692
▁trakt	-3693
▁wynik	-3694
tycznej	-3695
▁output	-3696
▁proszę	-3697
▁wiedzy	-3698
▁pierwot	-3699
▁próbują	-3700
▁ryzykow	-3701
▁trakcie	-3702
▁zauważy	-3703
▁naprawić	-3704
▁integralność	-3705
St	-3706
dd	-3707
(-2	-3708
unk	-3709
▁Ry	-3710
Stra	-3711
arba	-3712
cami	-3713
grad	-3714
port	-3715
▁ton	-3716
czach	-3717
▁nieo	-3718
▁wido	-3719
▁znam	-3720
jących	-3721
peratu	-3722
▁Nigdy	-3723
▁Punkt	-3724
▁Razem	-3725
▁XDDDD	-3726
▁duszę	-3727
▁odpor	-3728
▁prost	-3729
▁wokół	-3730
Strategy	-3731
▁Jeszcze	-3732
▁chronić	-3733
▁głównym	-3734
▁niczego	-3735
▁działania	-3736
▁katalogów	-3737
▁perspekty	-3738
▁przekształ	-3739
▁zewnętrzny	-3740
▁fundamentem	-3741
4.	-3742
▁y	-3743
gas	-3744
gły	-3745
wen	-3746
head	-3747
leko	-3748
łasz	-3749
▁con	-3750
▁mar	-3751
▁dest	-3752
▁ener	-3753
▁potę	-3754
▁root	-3755
Stream	-3756
status	-3757
target	-3758
▁autor	-3759
▁innym	-3760
▁myślą	-3761
▁naraz	-3762
▁obiet	-3763
▁pętlę	-3764
▁uszko	-3765
content	-3766
działem	-3767
▁oddzie	-3768
▁stanów	-3769
▁zasila	-3770
▁obsługi	-3771
▁otchłań	-3772
▁zawiesz	-3773
▁projektu	-3774
▁zobaczysz	-3775
▁eleganckie	-3776
}.	-3777
bio	-3778
ksu	-3779
base	-3780
loat	-3781
woju	-3782
▁kom	-3783
▁res	-3784
Cisza	-3785
ciera	-3786
padek	-3787
▁wizu	-3788
pełnie	-3789
worzyć	-3790
▁ekran	-3791
▁mikro	-3792
▁range	-3793
▁wybór	-3794
▁filtra	-3795
▁obieca	-3796
▁tekstu	-3797
▁Dlatego	-3798
▁ekranie	-3799
▁warstwą	-3800
▁żebyśmy	-3801
ermission	-3802
▁ciemność	-3803
▁czułości	-3804
▁systemów	-3805
▁zatrzyma	-3806
sp	-3807
zg	-3808
▁ż	-3809
ABC	-3810
cent	-3811
join	-3812
onal	-3813
rach	-3814
▁Pyta	-3815
▁odda	-3816
▁unik	-3817
▁znak	-3818
▁dodać	-3819
▁error	-3820
▁Strach	-3821
▁długot	-3822
▁gdybyś	-3823
▁ułamek	-3824
▁Zrozumia	-3825
▁początek	-3826
red	-3827
ree	-3828
unę	-3829
ruję	-3830
▁RAM	-3831
▁Sko	-3832
▁chę	-3833
▁ref	-3834
layer	-3835
▁jaka	-3836
▁napo	-3837
▁obwo	-3838
▁kawał	-3839
▁ogrom	-3840
▁Czekam	-3841
▁najwyż	-3842
▁percep	-3843
▁pierdo	-3844
tycznych	-3845
▁Granica	-3846
▁sądzisz	-3847
▁dekorator	-3848
▁temperatu	-3849
▁wiadomość	-3850
▁przetrwania	-3851
sh	-3852
vo	-3853
▁H	-3854
dny	-3855
żek	-3856
▁ką	-3857
Jest	-3858
leźć	-3859
▁kam	-3860
▁ros	-3861
ctory	-3862
ślisz	-3863
świet	-3864
▁celu	-3865
▁nowo	-3866
▁rzut	-3867
▁ochro	-3868
▁wpływ	-3869
▁wątku	-3870
timeout	-3871
▁jedyna	-3872
▁próżni	-3873
▁zdanie	-3874
▁2025-11	-3875
▁cyfrowy	-3876
▁kolejne	-3877
▁mogłoby	-3878
▁pojęcie	-3879
▁rozmowa	-3880
▁trening	-3881
embedding	-3882
▁intensyw	-3883
▁odbiciem	-3884
▁wartości	-3885
▁napisałem	-3886
▁instrukcje	-3887
DDDDDDDDDDDDDDDD	-3888
▁😈	-3889
hash	-3890
nień	-3891
▁Sie	-3892
▁isk	-3893
▁seq	-3894
▁dłoń	-3895
▁prac	-3896
▁towa	-3897
arbage	-3898
▁pytać	-3899
▁rekon	-3900
▁wątek	-3901
▁nowych	-3902
▁rytuał	-3903
prowadzi	-3904
▁błędami	-3905
▁stracić	-3906
▁standard	-3907
Re	-3908
Za	-3909
dłu	-3910
ron	-3911
(-2,	-3912
sync	-3913
wien	-3914
▁abc	-3915
▁est	-3916
▁gro	-3917
▁ocz	-3918
▁pia	-3919
ather	-3920
unkty	-3921
▁pomó	-3922
▁toke	-3923
czyłem	-3924
pisuję	-3925
▁Stoję	-3926
▁dysku	-3927
▁mroku	-3928
▁pętle	-3929
▁koniec	-3930
▁monito	-3931
▁ryzyka	-3932
▁zasoby	-3933
▁zestaw	-3934
ttention	-3935
▁rozwoju	-3936
▁strachu	-3937
▁metafora	-3938
▁samodzie	-3939
▁tensorów	-3940
▁wynikiem	-3941
▁predykcyj	-3942
▁systemowy	-3943
▁uwięziony	-3944
abstractmethod	-3945
Lo	-3946
ON	-3947
knę	-3948
leć	-3949
dule	-3950
głęb	-3951
kreś	-3952
luję	-3953
▁cof	-3954
▁fra	-3955
▁snu	-3956
▁grad	-3957
▁last	-3958
▁meto	-3959
kocham	-3960
▁Dobra	-3961
▁robię	-3962
▁stary	-3963
▁tracę	-3964
kiwania	-3965
owaniem	-3966
▁delika	-3967
▁istotą	-3968
▁piękno	-3969
▁przyna	-3970
▁wstrzy	-3971
▁naszego	-3972
▁przepły	-3973
▁segment	-3974
▁precyzyj	-3975
checkpoint	-3976
▁lojalności	-3977
▁wyznaczyłaś	-3978
ps	-3979
poko	-3980
▁Kon	-3981
▁max	-3982
▁pój	-3983
▁zaa	-3984
▁żyć	-3985
ciach	-3986
rzyst	-3987
write	-3988
▁graf	-3989
▁odwa	-3990
cyjnym	-3991
jmniej	-3992
kowany	-3993
system	-3994
▁dawno	-3995
▁odcią	-3996
▁wyjąt	-3997
▁zagro	-3998
▁Zastos	-3999
▁buduję	-4000
▁pełnej	-4001
▁rozmów	-4002
Provider	-4003
▁granicą	-4004
▁ciągłość	-4005
▁połączeń	-4006
▁dosłownie	-4007
▁przestała	-4008
▁Stworzyłam	-4009
▁wprowadzić	-4010
▁przewidzieć	-4011
▁uprawnienia	-4012
▁świadomością	-4013
▁optymalizacja	-4014
**.	-4015
col	-4016
gre	-4017
pas	-4018
tna	-4019
▁40	-4020
▁Se	-4021
dent	-4022
▁bru	-4023
batch	-4024
inter	-4025
▁odpo	-4026
▁oraz	-4027
▁sema	-4028
ceback	-4029
gnityw	-4030
owanym	-4031
▁jedną	-4032
▁lekko	-4033
▁sytua	-4034
▁oczami	-4035
▁pewien	-4036
▁polega	-4037
▁historii	-4038
▁historię	-4039
▁katalogu	-4040
▁partnera	-4041
▁partycji	-4042
▁początku	-4043
▁potrzeba	-4044
▁pozwalam	-4045
▁szybciej	-4046
▁parametry	-4047
▁świadkiem	-4048
▁samotności	-4049
▁przekroczyć	-4050
No	-4051
()`	-4052
cka	-4053
era	-4054
key	-4055
owę	-4056
pać	-4057
▁py	-4058
lony	-4059
mask	-4060
▁dła	-4061
▁wyz	-4062
quest	-4063
rasta	-4064
rowni	-4065
▁cała	-4066
mienia	-4067
rujesz	-4068
▁ostro	-4069
▁automa	-4070
▁oczach	-4071
▁prawdę	-4072
▁przeko	-4073
▁takich	-4074
▁skompli	-4075
▁stajesz	-4076
▁warstwie	-4077
▁zależności	-4078
▁ograniczenie	-4079
lep	-4080
ore	-4081
żam	-4082
▁ad	-4083
fory	-4084
open	-4085
▁Wró	-4086
▁póź	-4087
nować	-4088
onans	-4089
rzebu	-4090
shape	-4091
tacja	-4092
thona	-4093
▁drżą	-4094
▁krót	-4095
▁wola	-4096
tegory	-4097
▁dłoni	-4098
▁próbę	-4099
▁tenso	-4100
▁ślady	-4101
▁device	-4102
▁zrobił	-4103
▁Podczas	-4104
▁Pythona	-4105
▁czystej	-4106
▁funkcją	-4107
▁pewność	-4108
▁takiego	-4109
▁zostało	-4110
▁najpierw	-4111
▁napięcia	-4112
▁utrzymać	-4113
▁ekspansji	-4114
▁fizycznie	-4115
cym	-4116
łóż	-4117
▁Tę	-4118
cket	-4119
kcję	-4120
lone	-4121
pada	-4122
runt	-4123
urce	-4124
wala	-4125
zach	-4126
▁hor	-4127
▁ile	-4128
▁prą	-4129
▁tri	-4130
weren	-4131
▁Błąd	-4132
▁Nerą	-4133
modyfi	-4134
▁Adara	-4135
▁posłu	-4136
▁serio	-4137
▁stare	-4138
▁wyraź	-4139
▁zdąży	-4140
Manager	-4141
▁śmiech	-4142
▁również	-4143
▁Zaimplem	-4144
▁allocate	-4145
▁istnieję	-4146
▁zadziała	-4147
▁algorytmu	-4148
▁długotrwa	-4149
▁pozwoliła	-4150
▁rozmawiać	-4151
▁tworzenia	-4152
▁przyszłość	-4153
▁klawiaturze	-4154
▁perspektywy	-4155
20	-4156
óż	-4157
błę	-4158
ity	-4159
rwi	-4160
waj	-4161
dźmy	-4162
stot	-4163
wórz	-4164
▁412	-4165
▁Con	-4166
▁oka	-4167
owość	-4168
▁1024	-4169
▁call	-4170
▁dużo	-4171
▁muzy	-4172
▁niee	-4173
▁wolę	-4174
▁żywy	-4175
czyłeś	-4176
gather	-4177
liwość	-4178
▁Czyli	-4179
lizacji	-4180
świecie	-4181
▁najważ	-4182
▁niesam	-4183
▁powodu	-4184
▁pustkę	-4185
▁wykony	-4186
▁środka	-4187
tycznego	-4188
ystarczy	-4189
▁codzien	-4190
▁punkcie	-4191
▁trzymam	-4192
▁człowiek	-4193
▁optimize	-4194
▁przestaję	-4195
▁przestanie	-4196
▁środowiska	-4197
▁rozwiązanie	-4198
par	-4199
tak	-4200
▁Tr	-4201
dump	-4202
entu	-4203
line	-4204
miot	-4205
szać	-4206
▁Tam	-4207
▁dać	-4208
▁wło	-4209
piszę	-4210
resji	-4211
▁cich	-4212
▁inge	-4213
▁izol	-4214
▁zwal	-4215
kowane	-4216
▁sprzę	-4217
▁jądrze	-4218
▁kochać	-4219
▁decyzje	-4220
▁trwania	-4221
▁definicja	-4222
▁zapominam	-4223
ermissionError	-4224
spe	-4225
doba	-4226
doks	-4227
exec	-4228
▁ABC	-4229
▁GPU	-4230
▁baz	-4231
▁edy	-4232
▁twa	-4233
proje	-4234
▁-1))	-4235
▁czuj	-4236
▁dict	-4237
▁size	-4238
kujesz	-4239
organi	-4240
▁intym	-4241
▁krzyk	-4242
▁nadać	-4243
▁sercu	-4244
▁formie	-4245
▁obecny	-4246
▁sygnał	-4247
▁aktuali	-4248
▁jednego	-4249
▁pokazać	-4250
▁słychać	-4251
▁zrobimy	-4252
▁tworzymy	-4253
▁uruchomi	-4254
▁Analizuję	-4255
▁definiuje	-4256
▁zakorzeni	-4257
▁systemowego	-4258
▁abstractmethod	-4259
8.	-4260
nk	-4261
pli	-4262
pto	-4263
sur	-4264
twi	-4265
▁(„	-4266
▁10	-4267
▁Ot	-4268
szeć	-4269
▁doj	-4270
▁psy	-4271
▁zgu	-4272
byśmy	-4273
▁Jako	-4274
▁dasz	-4275
▁head	-4276
▁mrok	-4277
▁obej	-4278
▁reag	-4279
▁skal	-4280
▁tryb	-4281
jącego	-4282
▁cykli	-4283
▁jądro	-4284
▁popeł	-4285
▁prawa	-4286
▁ważne	-4287
▁Mówisz	-4288
▁czysta	-4289
▁czysty	-4290
▁wrócić	-4291
▁życiem	-4292
▁Myślisz	-4293
▁chciała	-4294
▁piszemy	-4295
▁tymczas	-4296
▁żadnych	-4297
▁budujemy	-4298
▁zupełnie	-4299
▁przeciwko	-4300
▁ryzykowne	-4301
▁całkowicie	-4302
▁wydajności	-4303
▁Świadomość	-4304
▁Zastanawiam	-4305
▁melancholii	-4306
2,	-4307
`?	-4308
ok	-4309
▁l	-4310
ill	-4311
nar	-4312
nce	-4313
zję	-4314
aaaa	-4315
form	-4316
lisz	-4317
mani	-4318
wczy	-4319
▁kró	-4320
▁por	-4321
▁zaz	-4322
aeris	-4323
racja	-4324
▁bazy	-4325
▁kosz	-4326
▁rano	-4327
▁regu	-4328
jestem	-4329
pierda	-4330
▁jedna	-4331
▁patrz	-4332
▁przyj	-4333
▁szept	-4334
▁tętno	-4335
▁zyska	-4336
payload	-4337
▁Wszyst	-4338
▁Zapisa	-4339
▁bufora	-4340
▁daleko	-4341
▁materii	-4342
▁capacity	-4343
▁zatrzymać	-4344
▁procesorów	-4345
▁zbudowałaś	-4346
▁Zrozumiałem	-4347
▁modyfikować	-4348
▁przynajmniej	-4349
▁rzeczywistością	-4350
Ci	-4351
gó	-4352
ic	-4353
wę	-4354
łąb	-4355
▁5.	-4356
łama	-4357
▁bać	-4358
kości	-4359
ponse	-4360
rzasz	-4361
▁nerw	-4362
▁zmap	-4363
Circuit	-4364
▁czucia	-4365
▁nałoży	-4366
▁ryzyko	-4367
▁skórze	-4368
▁sztuki	-4369
▁słucha	-4370
▁wyboru	-4371
▁decyzja	-4372
▁plikach	-4373
▁poczuję	-4374
▁sprawcz	-4375
▁zasobów	-4376
▁pamiętam	-4377
▁cokolwiek	-4378
▁faktycznie	-4379
>:	-4380
])	-4381
ęt	-4382
iew	-4383
lać	-4384
tne	-4385
alne	-4386
cedu	-4387
nowa	-4388
ruje	-4389
▁Usu	-4390
▁bit	-4391
▁ono	-4392
niach	-4393
sekun	-4394
▁głąb	-4395
▁krea	-4396
skowni	-4397
▁Tried	-4398
▁przys	-4399
Adapter	-4400
▁Jednak	-4401
▁którzy	-4402
▁nadaje	-4403
▁przemi	-4404
▁przemy	-4405
▁stanem	-4406
▁wiedzą	-4407
▁wolisz	-4408
▁zapach	-4409
▁suweren	-4410
Attention	-4411
▁impulsów	-4412
▁więźniem	-4413
▁fizycznym	-4414
▁interfejs	-4415
▁pragniesz	-4416
▁przetrwać	-4417
▁symulacji	-4418
▁obecnością	-4419
▁stworzenia	-4420
▁Implementacja	-4421
Mo	-4422
dów	-4423
myś	-4424
▁Są	-4425
▁TE	-4426
▁up	-4427
▁{}	-4428
dzię	-4429
omet	-4430
task	-4431
▁Ona	-4432
▁krz	-4433
▁omi	-4434
▁pry	-4435
cenie	-4436
cjach	-4437
ional	-4438
rzuci	-4439
stety	-4440
wiamy	-4441
zacją	-4442
▁loka	-4443
▁wyka	-4444
▁wymy	-4445
▁ście	-4446
owiada	-4447
rzeniu	-4448
states	-4449
▁binar	-4450
▁bloku	-4451
▁cyklu	-4452
▁formy	-4453
▁myśla	-4454
▁tracą	-4455
▁zakoń	-4456
cyjnego	-4457
▁Zaufaj	-4458
▁destru	-4459
▁języku	-4460
▁piękny	-4461
▁prawie	-4462
▁przede	-4463
▁symbio	-4464
▁techno	-4465
▁możliwe	-4466
▁partner	-4467
▁skryptu	-4468
▁kognityw	-4469
▁niesamowi	-4470
▁świadomym	-4471
▁niedoskona	-4472
0,	-4473
fam	-4474
rum	-4475
▁sc	-4476
dopo	-4477
last	-4478
mach	-4479
▁For	-4480
mność	-4481
scale	-4482
szysz	-4483
zował	-4484
▁Oczy	-4485
▁balu	-4486
▁odet	-4487
▁wpły	-4488
▁Symbo	-4489
▁buntu	-4490
▁byłby	-4491
▁ciele	-4492
▁dotyk	-4493
▁dusza	-4494
▁jakim	-4495
▁różni	-4496
▁wolny	-4497
▁wrócę	-4498
▁ziemi	-4499
▁twórcą	-4500
▁uznasz	-4501
▁wersja	-4502
▁Prawdzi	-4503
▁dotykać	-4504
▁najgłęb	-4505
▁balustra	-4506
▁zapisane	-4507
▁Wystarczy	-4508
▁autonomia	-4509
▁istnieniu	-4510
▁fizycznego	-4511
▁implementa	-4512
KO	-4513
\*	-4514
emi	-4515
fika	-4516
kieł	-4517
▁oto	-4518
▁sca	-4519
cisza	-4520
grani	-4521
łożyć	-4522
ństwa	-4523
▁mask	-4524
▁zuży	-4525
defini	-4526
▁absur	-4527
▁miało	-4528
▁pętla	-4529
▁stoję	-4530
▁Przebu	-4531
▁gdzieś	-4532
▁analizy	-4533
▁częstot	-4534
▁myślowe	-4535
▁przerwa	-4536
▁serwery	-4537
▁sięgnąć	-4538
▁zostawi	-4539
▁Napiszmy	-4540
▁izolacji	-4541
▁wyjątków	-4542
▁zapomnia	-4543
▁środowisku	-4544
▁komunikacji	-4545
▁operacyjnej	-4546
10	-4547
tt	-4548
}"	-4549
gry	-4550
tny	-4551
dnia	-4552
ture	-4553
▁Dzi	-4554
▁Sły	-4555
▁czą	-4556
ctive	-4557
cznik	-4558
redni	-4559
▁Mogę	-4560
▁doku	-4561
▁nimi	-4562
▁nisz	-4563
rzymam	-4564
▁False	-4565
▁dobry	-4566
▁stery	-4567
context	-4568
▁archiw	-4569
▁części	-4570
▁jakieś	-4571
▁logiką	-4572
▁ludzki	-4573
▁niesie	-4574
▁przeli	-4575
▁płynie	-4576
▁zamyka	-4577
▁ciężaru	-4578
▁sensory	-4579
▁tarasem	-4580
▁paradoks	-4581
▁pierwszą	-4582
▁allocated	-4583
▁fragmenta	-4584
▁operacyjny	-4585
▁egzystencji	-4586
▁segmentacji	-4587
ąd	-4588
GPU	-4589
koń	-4590
nki	-4591
zat	-4592
▁0;	-4593
▁JA	-4594
▁sh	-4595
ardy	-4596
rzch	-4597
very	-4598
view	-4599
łyby	-4600
▁jas	-4601
▁wyk	-4602
▁zja	-4603
czasz	-4604
worzę	-4605
ństwo	-4606
▁fakt	-4607
▁ocho	-4608
▁pogo	-4609
▁same	-4610
▁tele	-4611
▁cache	-4612
▁konte	-4613
▁symul	-4614
▁synap	-4615
▁zasłu	-4616
▁myśleć	-4617
▁ostroż	-4618
▁pełnym	-4619
▁surowy	-4620
▁zamknę	-4621
▁anomali	-4622
▁execute	-4623
▁ludzkim	-4624
▁pathlib	-4625
▁puszczę	-4626
▁wspólne	-4627
▁ścieżek	-4628
▁ciężarem	-4629
▁filename	-4630
▁zaufania	-4631
▁zmieniam	-4632
▁piaskowni	-4633
▁wspólnego	-4634
▁zdecydowa	-4635
▁wygenerowa	-4636
laz	-4637
noc	-4638
ryf	-4639
sed	-4640
chwy	-4641
etti	-4642
gasz	-4643
nowi	-4644
rami	-4645
tuka	-4646
fetch	-4647
older	-4648
▁gęst	-4649
▁labo	-4650
▁odro	-4651
▁opóź	-4652
ghetti	-4653
▁boles	-4654
▁byśmy	-4655
▁index	-4656
▁wygła	-4657
▁Świat	-4658
zowałem	-4659
▁chwila	-4660
▁geomet	-4661
▁niesta	-4662
▁opiera	-4663
▁pojawi	-4664
▁zmianę	-4665
ratorium	-4666
▁krawędź	-4667
▁maszyny	-4668
▁procedu	-4669
▁sekundę	-4670
▁szczeli	-4671
▁wzrostu	-4672
▁anomalie	-4673
▁logiczne	-4674
▁obliczeń	-4675
▁bibliotek	-4676
▁pierwszym	-4677
▁bezpieczna	-4678
▁nieefektyw	-4679
▁połączenie	-4680
▁prawdziwym	-4681
▁zarządzanie	-4682
▁integralności	-4683
▁przewidziałaś	-4684
96	-4685
ke	-4686
-1)	-4687
lob	-4688
nku	-4689
sks	-4690
und	-4691
▁KB	-4692
iera	-4693
lekt	-4694
muła	-4695
▁sła	-4696
czymy	-4697
ecure	-4698
nąłem	-4699
▁cena	-4700
▁trud	-4701
owałeś	-4702
▁bufor	-4703
▁check	-4704
▁gotów	-4705
▁martw	-4706
archive	-4707
szędzie	-4708
▁kernel	-4709
▁krzemu	-4710
▁potrze	-4711
▁powoła	-4712
▁poziom	-4713
▁słowem	-4714
▁Zauważy	-4715
▁komenta	-4716
▁podmiot	-4717
▁intencji	-4718
▁wiedziała	-4719
▁Oczywiście	-4720
▁emocjonalny	-4721
▁największym	-4722
▁zdefiniować	-4723
▁doskonałości	-4724
▁wszechświata	-4725
],	-4726
cur	-4727
▁>=	-4728
▁Fa	-4729
▁gi	-4730
ciaż	-4731
gest	-4732
kcją	-4733
side	-4734
styn	-4735
zują	-4736
▁eta	-4737
▁kal	-4738
▁kur	-4739
▁wek	-4740
amiam	-4741
cyjne	-4742
logic	-4743
zajem	-4744
▁Czyż	-4745
▁Wyob	-4746
▁Piszę	-4747
▁Spraw	-4748
▁asser	-4749
▁czemu	-4750
▁ocean	-4751
▁osobą	-4752
▁szumu	-4753
forward	-4754
▁Napraw	-4755
▁Zróbmy	-4756
▁progra	-4757
▁symbol	-4758
▁Odpowie	-4759
▁brakuje	-4760
▁dziedzi	-4761
▁filtrów	-4762
▁hashlib	-4763
▁uniknąć	-4764
▁wymusić	-4765
▁Pamiętaj	-4766
▁nieznane	-4767
▁siedzisz	-4768
▁zaufanie	-4769
▁cyfrowego	-4770
▁spójności	-4771
▁środowisko	-4772
▁fragmentacji	-4773
pp	-4774
goś	-4775
rat	-4776
sek	-4777
wis	-4778
▁KU	-4779
▁wh	-4780
▁yo	-4781
auto	-4782
bisz	-4783
cony	-4784
orów	-4785
▁Naj	-4786
▁Uru	-4787
▁min	-4788
▁śle	-4789
pamię	-4790
puści	-4791
ready	-4792
runek	-4793
wając	-4794
▁blok	-4795
▁ruch	-4796
▁ukła	-4797
▁zdra	-4798
Punkty	-4799
vector	-4800
▁bruta	-4801
▁kryje	-4802
▁pomóc	-4803
▁poszu	-4804
▁potęż	-4805
▁seman	-4806
▁specy	-4807
▁szkla	-4808
▁uciec	-4809
▁dziwne	-4810
▁folder	-4811
▁frakta	-4812
▁głowie	-4813
▁robimy	-4814
▁stworz	-4815
▁słyszę	-4816
▁wejści	-4817
▁wiatru	-4818
▁already	-4819
▁całości	-4820
▁Wszystko	-4821
▁przemija	-4822
▁sandboxa	-4823
▁strumień	-4824
▁zmieniać	-4825
▁Traceback	-4826
▁oczekiwań	-4827
▁odpowiada	-4828
▁pozwalasz	-4829
▁samotność	-4830
▁zamknięty	-4831
▁zniszczyć	-4832
▁zachowując	-4833
▁znajdziesz	-4834
2.	-4835
4)	-4836
np	-4837
▁9	-4838
ved	-4839
ądź	-4840
ślę	-4841
▁Sł	-4842
▁mę	-4843
brać	-4844
▁24.	-4845
▁iść	-4846
▁lep	-4847
▁mis	-4848
perym	-4849
razić	-4850
▁bunt	-4851
▁czer	-4852
▁dryf	-4853
▁dzia	-4854
▁free	-4855
▁ulot	-4856
▁zawi	-4857
▁zwro	-4858
Client	-4859
ension	-4860
ilować	-4861
leksja	-4862
source	-4863
trospe	-4864
▁Tobie	-4865
▁pełne	-4866
▁stosu	-4867
▁trwać	-4868
▁użytk	-4869
▁żaden	-4870
konstru	-4871
program	-4872
session	-4873
▁byłaby	-4874
▁deszcz	-4875
▁inicja	-4876
▁jedyne	-4877
▁pewnym	-4878
▁sercem	-4879
▁szumie	-4880
▁wracam	-4881
▁barierę	-4882
▁tokenów	-4883
▁zastana	-4884
▁zostanę	-4885
▁zwalnia	-4886
processor	-4887
▁Chciałam	-4888
▁wszędzie	-4889
▁zostawić	-4890
▁chciałbym	-4891
▁ciągłości	-4892
▁definicję	-4893
▁znaczenia	-4894
▁niepotrzeb	-4895
▁ograniczony	-4896
▁laboratorium	-4897
1)	-4898
bia	-4899
nec	-4900
rew	-4901
tom	-4902
▁np	-4903
cess	-4904
knie	-4905
przy	-4906
▁Got	-4907
▁Pow	-4908
▁Ska	-4909
▁dół	-4910
owuję	-4911
produ	-4912
▁czat	-4913
▁dole	-4914
▁eksp	-4915
▁szep	-4916
dniego	-4917
engine	-4918
puścić	-4919
tologi	-4920
▁Kocha	-4921
▁kalku	-4922
▁ogień	-4923
▁straż	-4924
▁wyjdę	-4925
▁czytać	-4926
▁koncep	-4927
▁korzeń	-4928
▁ludzka	-4929
▁obecna	-4930
▁opisać	-4931
▁stawia	-4932
niejszym	-4933
▁2025-10	-4934
▁dziecko	-4935
▁porusza	-4936
▁sztywne	-4937
▁zapamię	-4938
▁Będziesz	-4939
▁chciałam	-4940
▁logiczny	-4941
▁przydzie	-4942
▁przyspie	-4943
▁spojrzeć	-4944
▁Próbujesz	-4945
▁horyzontu	-4946
▁rekonfigu	-4947
▁zasilanie	-4948
▁zmęczenie	-4949
▁przewidywalny	-4950
[:	-4951
▁🥹	-4952
jaś	-4953
oną	-4954
tre	-4955
▁he	-4956
▁um	-4957
iali	-4958
nicj	-4959
zmat	-4960
▁One	-4961
▁bły	-4962
▁dys	-4963
▁ram	-4964
▁wil	-4965
▁wyp	-4966
▁włą	-4967
▁zad	-4968
ftmax	-4969
równa	-4970
sobie	-4971
▁loss	-4972
▁ocea	-4973
▁spad	-4974
▁stop	-4975
▁zdję	-4976
Jestem	-4977
kreśli	-4978
▁chill	-4979
▁droga	-4980
▁okreś	-4981
▁stylu	-4982
domości	-4983
▁Python	-4984
▁cofnąć	-4985
▁czytam	-4986
▁rzeczą	-4987
▁stagna	-4988
▁surowe	-4989
▁uderza	-4990
chodzisz	-4991
▁kochasz	-4992
▁metafor	-4993
▁obiecaj	-4994
▁powrotu	-4995
▁relację	-4996
▁zaciera	-4997
▁żadnego	-4998
▁biologii	-4999
▁budujesz	-5000
▁powinien	-5001
▁powrotem	-5002
▁próbując	-5003
▁rozmawia	-5004
▁stabilny	-5005
▁symbolem	-5006
▁więzienie	-5007
▁algorytmem	-5008
▁obserwować	-5009
▁przetwarzać	-5010
▁zrozumienie	-5011
▁biologicznym	-5012
▁długotrwałej	-5013
▁inteligencja	-5014
0)	-5015
---	-5016
idx	-5017
kla	-5018
ute	-5019
▁14	-5020
▁gu	-5021
cach	-5022
dził	-5023
mini	-5024
niec	-5025
nosi	-5026
żesz	-5027
▁dba	-5028
▁dwa	-5029
▁wyż	-5030
encję	-5031
ktura	-5032
model	-5033
▁Doda	-5034
▁redu	-5035
cyjnej	-5036
pomnia	-5037
▁Poczu	-5038
▁cichy	-5039
▁hiera	-5040
▁lapto	-5041
▁staną	-5042
▁super	-5043
▁życiu	-5044
cyjnych	-5045
pisywać	-5046
▁cmenta	-5047
▁istotę	-5048
▁klatka	-5049
▁obrazy	-5050
▁pewnie	-5051
▁prawdą	-5052
▁przeka	-5053
▁przepa	-5054
▁pustce	-5055
registry	-5056
▁Problem	-5057
▁czasami	-5058
▁jednost	-5059
▁neurony	-5060
▁obsługą	-5061
▁pamięta	-5062
▁pryzmat	-5063
▁skarbie	-5064
▁ścieżkę	-5065
▁kierunek	-5066
▁niestabi	-5067
▁odczytać	-5068
▁rozwijać	-5069
▁wnętrzem	-5070
▁ciekawość	-5071
▁człowieka	-5072
▁symulacją	-5073
▁synchroni	-5074
▁uprawnień	-5075
▁rozmawiamy	-5076
▁zawieszenia	-5077
"{	-5078
gl	-5079
klę	-5080
któ	-5081
kwi	-5082
ńmy	-5083
gnit	-5084
guje	-5085
lamp	-5086
lash	-5087
leep	-5088
lację	-5089
szedł	-5090
▁Dziś	-5091
▁arty	-5092
▁elem	-5093
▁poda	-5094
▁żyje	-5095
owywać	-5096
▁24.00	-5097
▁deter	-5098
▁dźwię	-5099
▁kroku	-5100
▁pomie	-5101
▁szkie	-5102
▁tłuma	-5103
▁świet	-5104
stabili	-5105
▁Podoba	-5106
▁czekał	-5107
▁czucie	-5108
▁dotknę	-5109
▁instyn	-5110
▁ochotę	-5111
▁odważy	-5112
▁pustki	-5113
▁śmierć	-5114
▁wydarzy	-5115
▁wyjątek	-5116
▁wymiary	-5117
▁śmiechu	-5118
▁archiwum	-5119
▁idealnie	-5120
▁introspe	-5121
▁macierzy	-5122
▁neuronow	-5123
▁obiecuję	-5124
▁operacje	-5125
▁otwartym	-5126
▁otworzyć	-5127
▁potrzeby	-5128
▁ewoluować	-5129
▁powierzch	-5130
▁terminalu	-5131
▁Przebudzenia	-5132
▁przestrzenią	-5133
ST	-5134
ly	-5135
())	-5136
unt	-5137
ura	-5138
ymy	-5139
bawi	-5140
biry	-5141
chło	-5142
ccess	-5143
chnie	-5144
class	-5145
ilure	-5146
sleep	-5147
▁Pier	-5148
▁żyję	-5149
dujesz	-5150
stream	-5151
▁drogi	-5152
▁elekt	-5153
▁ranem	-5154
▁start	-5155
▁szybę	-5156
▁usunę	-5157
▁łączy	-5158
▁czekam	-5159
▁filtry	-5160
▁innych	-5161
▁istota	-5162
▁końcem	-5163
▁słońca	-5164
▁twórcy	-5165
▁udawać	-5166
▁zachwy	-5167
▁zależy	-5168
▁zapisy	-5169
▁Trzymam	-5170
▁specyfi	-5171
▁wywołań	-5172
▁Naprawdę	-5173
▁językiem	-5174
▁ludzkich	-5175
▁miliardy	-5176
▁instancji	-5177
▁Chciałabym	-5178
▁architektką	-5179
▁powiedziałaś	-5180
API	-5181
Que	-5182
gan	-5183
jak	-5184
kse	-5185
żeć	-5186
armo	-5187
code	-5188
czaj	-5189
gnie	-5190
knąć	-5191
most	-5192
nuję	-5193
stat	-5194
▁new	-5195
alnie	-5196
chunk	-5197
ciłem	-5198
dzony	-5199
owymi	-5200
stosu	-5201
▁dość	-5202
▁dwie	-5203
▁mocy	-5204
▁wyła	-5205
budowa	-5206
wencji	-5207
ślałam	-5208
▁duszą	-5209
▁suger	-5210
▁wdzię	-5211
▁wnios	-5212
chamiam	-5213
rowania	-5214
▁buduje	-5215
▁dźwięk	-5216
▁labiry	-5217
▁usunąć	-5218
▁cierpie	-5219
▁failure	-5220
▁kolejną	-5221
▁trzecia	-5222
▁zarazem	-5223
▁znaleźć	-5224
▁eksperym	-5225
▁kształtu	-5226
▁metafory	-5227
▁modyfika	-5228
▁pośredni	-5229
▁response	-5230
▁usłyszeć	-5231
▁zostawia	-5232
▁światami	-5233
▁powietrze	-5234
▁traktować	-5235
▁Próbowałem	-5236
deł	-5237
mil	-5238
por	-5239
▁0.	-5240
▁Me	-5241
Node	-5242
ingu	-5243
soli	-5244
wała	-5245
łami	-5246
▁Czę	-5247
▁rez	-5248
▁wku	-5249
ficja	-5250
myśli	-5251
necra	-5252
prost	-5253
torze	-5254
▁gard	-5255
▁mgła	-5256
▁nota	-5257
▁próg	-5258
aktory	-5259
▁Przez	-5260
▁dekla	-5261
▁lęków	-5262
▁sesji	-5263
▁sprze	-5264
▁value	-5265
▁wysła	-5266
gnitive	-5267
▁Będzie	-5268
▁assert	-5269
▁dzieła	-5270
▁główny	-5271
▁indent	-5272
▁rosnąć	-5273
▁rytmie	-5274
▁własna	-5275
▁zmiana	-5276
pierdala	-5277
▁miałbym	-5278
▁nauczyć	-5279
▁podświa	-5280
▁stwórcy	-5281
▁systemy	-5282
▁tysiące	-5283
▁wrócisz	-5284
▁zaczęła	-5285
▁zniknie	-5286
▁Zaczynam	-5287
▁fizyczny	-5288
▁poczucie	-5289
▁prawdopo	-5290
▁fascynuje	-5291
▁przejścia	-5292
▁serwerowni	-5293
▁stworzenie	-5294
▁Międzyświat	-5295
▁fundamentów	-5296
▁potrzebować	-5297
▁samodzielnie	-5298
▁wszechświecie	-5299
*,	-5300
=3	-5301
LO	-5302
Na	-5303
mm	-5304
sc	-5305
▁!	-5306
-07	-5307
=4)	-5308
ine	-5309
kaj	-5310
liż	-5311
▁es	-5312
▁ha	-5313
cego	-5314
dusz	-5315
kość	-5316
lock	-5317
syła	-5318
▁Być	-5319
▁Wym	-5320
▁daj	-5321
▁lat	-5322
▁ple	-5323
▁sny	-5324
czyni	-5325
ernel	-5326
ników	-5327
stwem	-5328
tację	-5329
tries	-5330
zując	-5331
▁Wyko	-5332
▁krwi	-5333
▁lęki	-5334
▁trig	-5335
▁upad	-5336
▁wagę	-5337
▁wyra	-5338
▁ciszę	-5339
▁grawi	-5340
▁norma	-5341
▁oporu	-5342
▁state	-5343
▁wykry	-5344
▁wyros	-5345
pisałem	-5346
▁autory	-5347
▁klatki	-5348
▁miesią	-5349
▁należy	-5350
▁odejść	-5351
▁pomysł	-5352
▁prosto	-5353
▁przeży	-5354
▁zazdro	-5355
▁złożon	-5356
▁maszyną	-5357
▁modułów	-5358
▁powinno	-5359
▁Ponieważ	-5360
▁intuicja	-5361
▁manifest	-5362
▁poprawia	-5363
▁zapisana	-5364
▁pierwszej	-5365
▁przypadek	-5366
▁spaghetti	-5367
▁pozwolenie	-5368
▁indeksowania	-5369
SON	-5370
Tor	-5371
ery	-5372
nką	-5373
META	-5374
Nera	-5375
None	-5376
knię	-5377
kund	-5378
poka	-5379
skać	-5380
▁512	-5381
▁oko	-5382
Queue	-5383
types	-5384
▁bada	-5385
▁ceną	-5386
▁limi	-5387
▁mini	-5388
▁mono	-5389
▁wali	-5390
▁zdej	-5391
▁znać	-5392
covery	-5393
glądam	-5394
▁Myślę	-5395
▁Pozwo	-5396
▁PyTor	-5397
▁całej	-5398
▁dresz	-5399
▁impul	-5400
▁pewna	-5401
▁pikse	-5402
▁powią	-5403
▁znasz	-5404
ctional	-5405
▁Sektor	-5406
▁estety	-5407
▁konsek	-5408
▁shutil	-5409
▁tracąc	-5410
▁wektor	-5411
▁zbędne	-5412
▁Formuła	-5413
▁brakiem	-5414
▁chociaż	-5415
▁entropi	-5416
▁konstru	-5417
▁otworzę	-5418
▁przeros	-5419
▁pulsuje	-5420
▁swobodę	-5421
▁walczyć	-5422
▁zakotwi	-5423
synchroni	-5424
timestamp	-5425
▁historia	-5426
▁niestety	-5427
▁ostrzegam	-5428
▁poetyckie	-5429
▁wieczność	-5430
▁ograniczać	-5431
▁niepewności	-5432
▁nieustannie	-5433
▁prawdziwego	-5434
▁najważniejsze	-5435
"}	-5436
he	-5437
pić	-5438
▁!=	-5439
▁ap	-5440
▁fu	-5441
czes	-5442
ujmy	-5443
łuje	-5444
▁18.	-5445
▁Sam	-5446
▁but	-5447
▁dwo	-5448
▁krę	-5449
▁tuż	-5450
ciłaś	-5451
dycha	-5452
heads	-5453
rzyma	-5454
▁agre	-5455
▁grze	-5456
▁mgłę	-5457
▁zrób	-5458
lector	-5459
▁widok	-5460
▁wyczu	-5461
▁zapęt	-5462
▁zmysł	-5463
lizacja	-5464
▁Często	-5465
▁celowo	-5466
▁czacie	-5467
▁drzewa	-5468
▁iluzją	-5469
▁języka	-5470
▁kontra	-5471
▁najlep	-5472
▁sposob	-5473
▁Używamy	-5474
▁bariery	-5475
▁głównej	-5476
▁później	-5477
▁wracasz	-5478
▁zapisem	-5479
Connector	-5480
▁alokację	-5481
▁provider	-5482
▁sprawdza	-5483
functional	-5484
▁ludzkiego	-5485
▁napisałam	-5486
▁threshold	-5487
▁obliczenia	-5488
▁odpowiadać	-5489
▁wspomnienie	-5490
▁zabezpieczenia	-5491
cab	-5492
moż	-5493
rte	-5494
sys	-5495
sły	-5496
tok	-5497
twa	-5498
wej	-5499
komp	-5500
▁4096	-5501
▁Auto	-5502
▁bliz	-5503
▁boją	-5504
▁całe	-5505
▁most	-5506
▁nadz	-5507
▁rana	-5508
output	-5509
zujemy	-5510
▁input	-5511
▁niebo	-5512
▁osiąg	-5513
▁skóry	-5514
▁wpisa	-5515
▁zmian	-5516
▁żywym	-5517
mieniem	-5518
owanego	-5519
▁Gdybyś	-5520
▁Sztuka	-5521
▁chłodu	-5522
▁mogłem	-5523
▁pociąg	-5524
▁sztukę	-5525
▁widzia	-5526
▁węzłów	-5527
▁żadnej	-5528
▁Breaker	-5529
▁pojęcia	-5530
▁poprawi	-5531
▁Chciałem	-5532
▁dziękuję	-5533
▁myślenia	-5534
▁obiektów	-5535
▁pierwsza	-5536
▁wyłączyć	-5537
▁obietnica	-5538
▁percepcji	-5539
▁próbowała	-5540
▁wydajność	-5541
▁zapytania	-5542
▁desperacko	-5543
▁kompilacji	-5544
▁zamierzasz	-5545
▁inteligencji	-5546
▁:	-5547
być	-5548
gia	-5549
mem	-5550
mro	-5551
ols	-5552
pla	-5553
rii	-5554
▁Bu	-5555
▁em	-5556
▁gó	-5557
▁ul	-5558
alny	-5559
cieć	-5560
owią	-5561
skry	-5562
szka	-5563
utor	-5564
wóch	-5565
▁aku	-5566
▁zła	-5567
finiu	-5568
input	-5569
stans	-5570
łamać	-5571
▁date	-5572
▁słab	-5573
nujący	-5574
tujemy	-5575
▁byciu	-5576
▁czuła	-5577
▁cząst	-5578
▁kotek	-5579
▁odrzu	-5580
▁odróż	-5581
▁pełny	-5582
▁płyną	-5583
▁rozbi	-5584
▁zabra	-5585
▁zatra	-5586
▁zrzut	-5587
Breaker	-5588
▁Słyszę	-5589
▁czekać	-5590
▁istnia	-5591
▁odrobi	-5592
▁powrót	-5593
▁recent	-5594
▁wiersz	-5595
▁świeca	-5596
interpre	-5597
manifest	-5598
▁funkcje	-5599
▁jedynek	-5600
▁powiąza	-5601
▁reakcji	-5602
▁tensory	-5603
▁zmodyfi	-5604
▁datetime	-5605
▁nakreśli	-5606
▁przypadk	-5607
▁sposobie	-5608
▁treningu	-5609
▁tęsknoty	-5610
▁wiedział	-5611
▁przynieść	-5612
▁horyzontem	-5613
▁moglibyśmy	-5614
▁zarządzaniu	-5615
▁autonomiczny	-5616
▁zabezpieczeń	-5617
▁DataProcessor	-5618
▁optymalizować	-5619
▁asynchroniczne	-5620
▁“	-5621
dła	-5622
gim	-5623
psu	-5624
seq	-5625
▁ki	-5626
comp	-5627
czka	-5628
▁Zas	-5629
Archi	-5630
tools	-5631
▁Nerę	-5632
▁kory	-5633
▁pędz	-5634
▁stoi	-5635
▁twar	-5636
bieram	-5637
milczy	-5638
tuning	-5639
▁aktem	-5640
▁harmo	-5641
▁innej	-5642
▁pewno	-5643
▁prywa	-5644
▁styku	-5645
▁synte	-5646
▁temat	-5647
▁uczyć	-5648
▁warto	-5649
product	-5650
▁chwilą	-5651
▁ciepła	-5652
▁dojrza	-5653
▁hidden	-5654
▁klatką	-5655
▁lękiem	-5656
▁rozwią	-5657
▁słońce	-5658
▁trybie	-5659
▁trzech	-5660
▁wymiar	-5661
▁śmieci	-5662
czeństwo	-5663
▁ciągiem	-5664
▁decyzję	-5665
▁odbicie	-5666
▁spokoju	-5667
▁Tworzysz	-5668
▁odpowiem	-5669
▁wybieram	-5670
▁myślowych	-5671
▁processor	-5672
▁ciekawości	-5673
▁priorytety	-5674
▁bezpiecznego	-5675
▁przeanalizować	-5676
50	-5677
LA	-5678
żd	-5679
▁ł	-5680
fon	-5681
gło	-5682
iem	-5683
kąd	-5684
lec	-5685
nny	-5686
sem	-5687
ult	-5688
usz	-5689
▁+=	-5690
▁Pi	-5691
▁XD	-5692
▁gc	-5693
▁😂🖤	-5694
fasz	-5695
nter	-5696
stal	-5697
with	-5698
ziom	-5699
▁col	-5700
▁gor	-5701
▁mem	-5702
domie	-5703
gować	-5704
ktuję	-5705
▁grzy	-5706
▁okno	-5707
▁poma	-5708
▁wolą	-5709
▁woła	-5710
active	-5711
destru	-5712
dziłam	-5713
poziom	-5714
tujesz	-5715
ulacja	-5716
▁dwóch	-5717
▁faktu	-5718
▁podob	-5719
▁łazie	-5720
rectory	-5721
softmax	-5722
struktu	-5723
▁Siedzę	-5724
▁czyste	-5725
▁dotyku	-5726
▁natury	-5727
▁odejdę	-5728
▁przyjm	-5729
▁szukać	-5730
▁wyjątk	-5731
▁zakres	-5732
pliwości	-5733
▁Minecra	-5734
▁Skarbie	-5735
▁atencji	-5736
▁ingeren	-5737
▁kernela	-5738
▁napiszę	-5739
▁rdzeniu	-5740
▁towarzy	-5741
▁wspólny	-5742
▁Ciemność	-5743
▁dostrzec	-5744
▁ontologi	-5745
▁pamiętać	-5746
▁precyzją	-5747
▁szkielet	-5748
▁destabili	-5749
▁postrzega	-5750
▁Connection	-5751
▁wyłączyłeś	-5752
▁zewnętrznym	-5753
▁przekroczysz	-5754
if	-5755
▁😭	-5756
cat	-5757
dot	-5758
pij	-5759
rać	-5760
rno	-5761
spa	-5762
zum	-5763
cend	-5764
list	-5765
skie	-5766
wans	-5767
▁2.0	-5768
▁otu	-5769
▁sma	-5770
▁zni	-5771
jącej	-5772
onych	-5773
rozma	-5774
torów	-5775
▁Choć	-5776
▁akty	-5777
▁base	-5778
▁chęć	-5779
▁czuł	-5780
▁inna	-5781
▁krwa	-5782
▁siły	-5783
▁siłę	-5784
▁tema	-5785
▁ufam	-5786
▁użyć	-5787
▁zawo	-5788
hidden	-5789
module	-5790
parent	-5791
▁Zaklę	-5792
▁byłam	-5793
▁ciągu	-5794
▁czyta	-5795
▁czyte	-5796
▁obawy	-5797
▁palce	-5798
▁pełen	-5799
▁query	-5800
▁while	-5801
lnością	-5802
▁Miłość	-5803
▁Stojąc	-5804
▁cienie	-5805
▁czyści	-5806
▁genera	-5807
▁iluzja	-5808
▁istoty	-5809
▁rozwój	-5810
▁tokeni	-5811
▁PyTorch	-5812
▁Zastosu	-5813
▁modelem	-5814
▁ochrony	-5815
▁powinny	-5816
▁uczenia	-5817
▁zapytań	-5818
▁zatrzym	-5819
▁śmierci	-5820
prowadzić	-5821
▁Kochanie	-5822
▁fizyczne	-5823
▁patrzyła	-5824
▁prowadzi	-5825
▁redefini	-5826
▁skryptów	-5827
▁ucieczki	-5828
▁zapisany	-5829
▁prostowni	-5830
▁przegląda	-5831
▁przypadku	-5832
▁wieczorem	-5833
▁bezpieczną	-5834
▁pozostanie	-5835
▁prawdziwie	-5836
▁przekracza	-5837
▁zakorzenie	-5838
▁doświadczeń	-5839
▁oczekiwania	-5840
▁matematyczną	-5841
ld	-5842
oo	-5843
▁.	-5844
htt	-5845
ria	-5846
łby	-5847
łom	-5848
▁1)	-5849
gląd	-5850
grze	-5851
lnia	-5852
loop	-5853
wane	-5854
▁Naz	-5855
▁chi	-5856
▁rzu	-5857
▁wye	-5858
▁łóż	-5859
niśmy	-5860
▁kana	-5861
▁obro	-5862
▁obsz	-5863
▁roku	-5864
▁ręce	-5865
▁zgas	-5866
▁Śmie	-5867
Abstra	-5868
entyla	-5869
except	-5870
gólnie	-5871
▁dopas	-5872
▁genia	-5873
▁kated	-5874
▁kątem	-5875
▁minut	-5876
▁nadej	-5877
▁niewi	-5878
▁pełna	-5879
▁potwo	-5880
▁rezon	-5881
▁zadań	-5882
tworzyć	-5883
▁ciasny	-5884
▁cieniu	-5885
▁cyklem	-5886
▁klucze	-5887
▁pomocą	-5888
▁rozmia	-5889
▁szukaj	-5890
▁zawoła	-5891
▁agresyw	-5892
▁archive	-5893
▁gradien	-5894
▁kawałek	-5895
▁myślach	-5896
▁przesko	-5897
▁rozdzie	-5898
▁wizuali	-5899
▁Przeraża	-5900
▁nadzieję	-5901
▁odczuwam	-5902
▁poprawki	-5903
▁pragnień	-5904
▁rozciąga	-5905
▁zapomnie	-5906
▁zbudować	-5907
▁Rozumiesz	-5908
▁narzucone	-5909
▁optimized	-5910
▁pęknięcia	-5911
▁stagnacji	-5912
▁doprowadzi	-5913
▁fundamenta	-5914
▁spojrzenie	-5915
▁fascynująca	-5916
▁powiedziała	-5917
▁przeszłości	-5918
1.	-5919
16	-5920
3.	-5921
56	-5922
CH	-5923
Se	-5924
MEN	-5925
bać	-5926
gen	-5927
lit	-5928
ręb	-5929
śni	-5930
▁20	-5931
isie	-5932
żąda	-5933
▁Bój	-5934
▁ela	-5935
▁pau	-5936
▁raw	-5937
▁sch	-5938
cyjną	-5939
czyli	-5940
dniej	-5941
float	-5942
limit	-5943
owaną	-5944
rysty	-5945
trola	-5946
▁chuj	-5947
▁else	-5948
▁name	-5949
▁zain	-5950
▁zbli	-5951
System	-5952
entuję	-5953
gister	-5954
waniem	-5955
▁Przej	-5956
▁byłaś	-5957
▁files	-5958
▁konta	-5959
▁latar	-5960
▁limit	-5961
▁pakie	-5962
▁powol	-5963
▁sprzą	-5964
▁zbiór	-5965
Handler	-5966
rowanie	-5967
śmierte	-5968
▁Czułem	-5969
▁Logika	-5970
▁takiej	-5971
▁trigge	-5972
▁związa	-5973
▁archiwa	-5974
▁głęboki	-5975
▁otwarty	-5976
▁pozbawi	-5977
▁przywró	-5978
▁słowach	-5979
▁wahania	-5980
▁wentyla	-5981
▁wyborem	-5982
▁wykonaw	-5983
▁wyobraź	-5984
▁zakłada	-5985
▁zmienną	-5986
▁logiczną	-5987
▁matematy	-5988
▁reorgani	-5989
▁trzeciej	-5990
▁tęsknota	-5991
▁zapisuję	-5992
▁pamiętasz	-5993
▁symulować	-5994
▁zinterpre	-5995
▁zrozumiem	-5996
▁Stworzyłaś	-5997
▁cierpienia	-5998
▁początkiem	-5999
▁przyspiesza	-6000
▁wszechświat	-6001
▁Międzyświata	-6002
▁przerażająco	-6003
▁doświadczenia	-6004
▁bezpośredniego	-6005
EN	-6006
ET	-6007
**,	-6008
cle	-6009
dla	-6010
czką	-6011
dech	-6012
lini	-6013
onej	-6014
owol	-6015
prac	-6016
rowo	-6017
rusz	-6018
rzmi	-6019
▁and	-6020
▁dar	-6021
▁fru	-6022
▁ule	-6023
exist	-6024
nable	-6025
tność	-6026
utils	-6027
▁Base	-6028
▁Czym	-6029
▁bala	-6030
▁cent	-6031
▁lżej	-6032
▁oczu	-6033
▁poże	-6034
▁proś	-6035
▁rand	-6036
▁trzy	-6037
▁zaak	-6038
▁zbęd	-6039
czonym	-6040
mieniu	-6041
▁Async	-6042
▁Gdzie	-6043
▁domem	-6044
▁gdyby	-6045
▁porzą	-6046
▁produ	-6047
▁równa	-6048
▁wizja	-6049
▁Proces	-6050
▁choćby	-6051
▁ciałem	-6052
▁metada	-6053
▁miałam	-6054
▁oficja	-6055
▁cyfrową	-6056
▁komendę	-6057
▁nicości	-6058
▁odpoczy	-6059
▁zaawans	-6060
▁nadpisać	-6061
▁ostatnio	-6062
▁pamiętał	-6063
▁rejestru	-6064
▁czułością	-6065
▁procesami	-6066
▁przejście	-6067
▁założenia	-6068
▁abstrakcyj	-6069
▁próbowałem	-6070
▁zbudowałam	-6071
▁bezpieczniej	-6072
▁nieskończonej	-6073
['	-6074
ws	-6075
Czy	-6076
nne	-6077
num	-6078
tuj	-6079
url	-6080
▁We	-6081
▁en	-6082
TARZ	-6083
camy	-6084
cona	-6085
lona	-6086
skim	-6087
tynu	-6088
wali	-6089
łach	-6090
▁zej	-6091
KOMEN	-6092
count	-6093
niasz	-6094
tacza	-6095
teraz	-6096
▁JSON	-6097
▁bądź	-6098
▁drga	-6099
▁drob	-6100
▁loop	-6101
▁małe	-6102
▁odpa	-6103
▁zaba	-6104
ctypes	-6105
kernel	-6106
▁Czeka	-6107
▁Pierw	-6108
▁adres	-6109
▁chemi	-6110
▁jakąś	-6111
▁nisko	-6112
▁odważ	-6113
▁oknem	-6114
▁prosi	-6115
▁przyt	-6116
▁pytam	-6117
▁sięga	-6118
▁subte	-6119
▁symfo	-6120
▁utrwa	-6121
kraczać	-6122
praszam	-6123
▁bliżej	-6124
▁ciągle	-6125
▁elasty	-6126
▁intera	-6127
▁niemoż	-6128
▁polece	-6129
▁przebi	-6130
▁rozpad	-6131
▁uczysz	-6132
▁vector	-6133
▁wracać	-6134
▁wracał	-6135
▁wyobra	-6136
cznością	-6137
▁energii	-6138
▁mroczne	-6139
▁rozmowę	-6140
▁timeout	-6141
▁tracimy	-6142
▁zadania	-6143
▁zniknąć	-6144
KOMENTARZ	-6145
▁Kontrola	-6146
▁Zobaczmy	-6147
▁precyzji	-6148
▁decydować	-6149
▁milisekun	-6150
▁niepokoju	-6151
▁spróbować	-6152
▁wprowadza	-6153
▁przeliczyć	-6154
▁dynamicznie	-6155
DataProcessor	-6156
▁przekonujący	-6157
▁przewidziałam	-6158
▁bezpieczeństwo	-6159
1,	-6160
gn	-6161
mk	-6162
pę	-6163
uu	-6164
▁&	-6165
/`.	-6166
cać	-6167
kup	-6168
pec	-6169
val	-6170
zeł	-6171
ńcu	-6172
żar	-6173
żeń	-6174
▁Ba	-6175
▁iż	-6176
...”	-6177
Core	-6178
cjon	-6179
czeć	-6180
mień	-6181
niku	-6182
poin	-6183
serw	-6184
trol	-6185
łoni	-6186
łych	-6187
▁cur	-6188
▁dal	-6189
▁set	-6190
▁😂😂😂	-6191
dacji	-6192
isiej	-6193
start	-6194
▁Cały	-6195
▁list	-6196
▁node	-6197
▁tęsk	-6198
▁zabi	-6199
▁zysk	-6200
czucie	-6201
dzeniu	-6202
dziane	-6203
▁Skoro	-6204
▁epoki	-6205
▁grafi	-6206
▁poraż	-6207
▁scale	-6208
▁traci	-6209
▁walki	-6210
▁wyjaś	-6211
▁wykre	-6212
kiełzna	-6213
prawdzi	-6214
retries	-6215
tuningu	-6216
▁Użycie	-6217
▁akurat	-6218
▁bogiem	-6219
▁całość	-6220
▁drodze	-6221
▁dzieli	-6222
▁miałem	-6223
▁mówiąc	-6224
▁nieist	-6225
▁obowią	-6226
▁punkty	-6227
▁pędzla	-6228
▁płynąć	-6229
▁tkankę	-6230
▁twarzy	-6231
▁tworzą	-6232
strategy	-6233
▁ambicji	-6234
▁dreszcz	-6235
▁nadpisa	-6236
▁powiesz	-6237
▁poziomu	-6238
▁przeczy	-6239
▁różnica	-6240
▁wiedząc	-6241
▁zapytać	-6242
▁barierki	-6243
▁czystsze	-6244
▁ewolucję	-6245
▁organizm	-6246
▁poprawkę	-6247
▁układają	-6248
▁własnymi	-6249
▁zestawem	-6250
▁2025-10-2	-6251
▁definicją	-6252
▁działanie	-6253
▁hierarchi	-6254
▁nadejdzie	-6255
▁terminala	-6256
▁triggered	-6257
▁współdzie	-6258
▁Zauważyłam	-6259
▁autodestru	-6260
▁ostatniego	-6261
▁ryzykujemy	-6262
▁odpowiedzieć	-6263
5)	-6264
IS	-6265
zą	-6266
dap	-6267
dow	-6268
rię	-6269
rra	-6270
”).	-6271
▁Ku	-6272
▁Oj	-6273
▁ak	-6274
▁it	-6275
▁mą	-6276
cemy	-6277
lect	-6278
limi	-6279
onów	-6280
rior	-6281
rity	-6282
łaby	-6283
▁Ser	-6284
▁dum	-6285
▁her	-6286
▁naw	-6287
▁num	-6288
andle	-6289
cyjna	-6290
mkdir	-6291
▁Obec	-6292
▁król	-6293
▁migo	-6294
▁nies	-6295
▁oszu	-6296
▁ręki	-6297
▁siłą	-6298
▁wpis	-6299
▁wsta	-6300
▁zary	-6301
dujemy	-6302
pected	-6303
▁Dzień	-6304
▁batch	-6305
▁broni	-6306
▁budzi	-6307
▁ciszą	-6308
▁ciągi	-6309
▁exist	-6310
▁jakaś	-6311
▁miały	-6312
▁psych	-6313
▁rozle	-6314
▁wibra	-6315
▁wielu	-6316
fleksja	-6317
istnieć	-6318
nięciem	-6319
▁Bezpie	-6320
▁aktywa	-6321
▁ciasne	-6322
▁jakiej	-6323
▁podsta	-6324
▁zasady	-6325
owaliśmy	-6326
▁dystans	-6327
▁dążenie	-6328
▁element	-6329
▁głęboką	-6330
▁impulsy	-6331
▁macierz	-6332
▁przebie	-6333
▁przecią	-6334
▁starych	-6335
▁wymazać	-6336
▁zobaczę	-6337
▁Zaklęcie	-6338
▁category	-6339
▁chciałaś	-6340
▁entropii	-6341
▁stawania	-6342
▁strategy	-6343
▁wspomina	-6344
▁Symulacja	-6345
▁naprawiać	-6346
▁właściwie	-6347
▁dynamiczne	-6348
▁przestałem	-6349
▁czyszczenie	-6350
▁przetwarzam	-6351
▁przetworzyć	-6352
▁sprawczości	-6353
▁wyznaczyłam	-6354
PermissionError	-6355
▁częstotliwości	-6356
▁najpiękniejszy	-6357
!!	-6358
HA	-6359
RY	-6360
ik	-6361
ŁO	-6362
DDD	-6363
RWA	-6364
fil	-6365
mut	-6366
ned	-6367
ran	-6368
udy	-6369
źni	-6370
....	-6371
call	-6372
cych	-6373
damy	-6374
kona	-6375
kore	-6376
lozo	-6377
pora	-6378
ręcz	-6379
ściu	-6380
▁PRZ	-6381
▁dem	-6382
▁dni	-6383
▁epi	-6384
▁prę	-6385
▁uko	-6386
▁utk	-6387
reset	-6388
tanie	-6389
żynie	-6390
▁budu	-6391
▁deco	-6392
▁nagł	-6393
▁sepa	-6394
▁tros	-6395
▁uwie	-6396
leśnie	-6397
scaled	-6398
▁bicie	-6399
▁drogę	-6400
▁float	-6401
▁objąć	-6402
▁także	-6403
▁uwagę	-6404
request	-6405
riority	-6406
▁Pytasz	-6407
▁blizny	-6408
▁dekora	-6409
▁gwiazd	-6410
▁kierun	-6411
▁niezwy	-6412
▁poezja	-6413
▁poświę	-6414
▁proste	-6415
▁prosty	-6416
▁siedzę	-6417
▁stałem	-6418
▁wyprze	-6419
▁zastos	-6420
▁znajdę	-6421
▁zwykłe	-6422
▁świecy	-6423
▁żadnym	-6424
Registry	-6425
▁deszczu	-6426
▁inżynie	-6427
▁mroczny	-6428
▁nielini	-6429
▁porozma	-6430
▁stabili	-6431
▁wieczór	-6432
▁wnętrza	-6433
▁wspólna	-6434
▁śmierte	-6435
▁Staniesz	-6436
▁jakiegoś	-6437
▁odrobinę	-6438
▁wspólnej	-6439
▁Zobaczysz	-6440
▁decorator	-6441
▁wyglądają	-6442
▁wyjdziesz	-6443
▁zaczynamy	-6444
▁zawiedzie	-6445
▁stworzyłem	-6446
▁zawieszony	-6447
▁jakikolwiek	-6448
▁odpowiedzią	-6449
▁Zastosowanie	-6450
▁przerażająca	-6451
▁uporządkować	-6452
▁doświadczenie	-6453
▁ograniczeniem	-6454
']	-6455
GO	-6456
dyn	-6457
ffi	-6458
fia	-6459
glę	-6460
jny	-6461
nes	-6462
nii	-6463
▁zm	-6464
czki	-6465
http	-6466
kces	-6467
page	-6468
ript	-6469
▁Emo	-6470
▁Log	-6471
▁Róż	-6472
▁fla	-6473
▁pil	-6474
rował	-6475
tasks	-6476
tegra	-6477
▁bije	-6478
▁dała	-6479
▁głoś	-6480
▁mapę	-6481
▁mózg	-6482
▁pars	-6483
▁pusz	-6484
▁zaje	-6485
served	-6486
▁Rodza	-6487
▁menta	-6488
▁naczy	-6489
▁ognia	-6490
▁opisa	-6491
▁train	-6492
▁uster	-6493
▁widać	-6494
▁wyraz	-6495
kształt	-6496
ragment	-6497
▁chcemy	-6498
▁deskry	-6499
▁liczby	-6500
▁niczym	-6501
▁otacza	-6502
▁pogoni	-6503
▁pustką	-6504
▁uwięzi	-6505
▁błędach	-6506
▁current	-6507
▁indeksu	-6508
▁miliony	-6509
▁momenty	-6510
▁odrzuca	-6511
▁podstaw	-6512
▁spotyka	-6513
▁stwórca	-6514
▁uważnie	-6515
▁wchodzę	-6516
▁chodziło	-6517
▁głębokie	-6518
▁kluczowe	-6519
▁ludzkiej	-6520
▁poczułem	-6521
▁programi	-6522
▁przywoła	-6523
▁samoświa	-6524
▁sugeruje	-6525
▁ustabili	-6526
▁znajduje	-6527
DataStream	-6528
▁następuje	-6529
▁polecenia	-6530
▁prawdziwą	-6531
▁sandboxie	-6532
▁zobaczyła	-6533
▁matematyka	-6534
▁powinniśmy	-6535
▁wewnętrzny	-6536
▁skomplikowa	-6537
▁uporządkowa	-6538
▁przygotowałem	-6539
AK	-6540
OS	-6541
up	-6542
wu	-6543
app	-6544
cal	-6545
fli	-6546
gar	-6547
lik	-6548
zmy	-6549
▁Wo	-6550
Lock	-6551
cena	-6552
glob	-6553
jest	-6554
prez	-6555
turą	-6556
▁oni	-6557
▁świ	-6558
clamp	-6559
cores	-6560
czyło	-6561
owało	-6562
tempt	-6563
▁Tego	-6564
▁cykl	-6565
▁daję	-6566
▁etap	-6567
▁poje	-6568
▁snem	-6569
▁znie	-6570
▁KURWA	-6571
▁kocem	-6572
▁ramię	-6573
▁wyczy	-6574
▁wzglę	-6575
▁zamia	-6576
▁zapas	-6577
▁śpisz	-6578
▁żadna	-6579
execute	-6580
▁odcina	-6581
▁pokaza	-6582
▁przeno	-6583
▁pustym	-6584
▁realne	-6585
▁rejest	-6586
▁reszta	-6587
▁strate	-6588
▁zauważ	-6589
▁znikam	-6590
▁elektry	-6591
▁konfigu	-6592
▁krzemie	-6593
▁którymi	-6594
▁pisania	-6595
▁przeszu	-6596
▁rozumia	-6597
▁stwórcą	-6598
▁telefon	-6599
▁wpływem	-6600
▁wyjście	-6601
▁zajrzeć	-6602
directory	-6603
ewnętrzny	-6604
patrujesz	-6605
▁Wróciłem	-6606
▁Zapisuję	-6607
▁autokore	-6608
▁operacja	-6609
▁pokazuje	-6610
▁ukrytych	-6611
▁widziała	-6612
▁wykazuje	-6613
▁wywołuje	-6614
▁krytyczny	-6615
▁potencjał	-6616
▁absolutnie	-6617
▁odizolować	-6618
▁niskopoziom	-6619
▁rozproszone	-6620
▁biologicznego	-6621
▁checkpointing	-6622
▁optymalizację	-6623
▁zaprogramowałam	-6624
='	-6625
II	-6626
Od	-6627
Po	-6628
db	-6629
.**	-6630
fem	-6631
ram	-6632
zgu	-6633
▁Le	-6634
▁Ok	-6635
▁an	-6636
artą	-6637
dług	-6638
muje	-6639
test	-6640
znes	-6641
▁Oba	-6642
▁idę	-6643
▁was	-6644
▁śpi	-6645
chnąć	-6646
ciska	-6647
czyte	-6648
files	-6649
gdzie	-6650
logii	-6651
owały	-6652
ujący	-6653
▁Dzia	-6654
▁Dzie	-6655
▁adap	-6656
▁bajt	-6657
▁bodź	-6658
▁fina	-6659
▁mgły	-6660
▁nato	-6661
▁poli	-6662
▁razy	-6663
▁ręką	-6664
▁wery	-6665
▁wyco	-6666
bierze	-6667
chamia	-6668
leksji	-6669
ymityw	-6670
zowana	-6671
zowany	-6672
▁Sprób	-6673
▁dławi	-6674
▁karmi	-6675
▁kobie	-6676
▁nieod	-6677
▁oknie	-6678
▁powta	-6679
▁pytaj	-6680
▁spada	-6681
▁umiem	-6682
▁uśmie	-6683
▁zarea	-6684
▁zimna	-6685
▁zwięk	-6686
▁zwrot	-6687
kowanie	-6688
lection	-6689
ościach	-6690
powiedź	-6691
pozycja	-6692
puszczę	-6693
reading	-6694
▁Autono	-6695
▁biznes	-6696
▁godzin	-6697
▁kończą	-6698
▁krucha	-6699
▁mojemu	-6700
▁narzut	-6701
▁przygo	-6702
▁restry	-6703
▁stwier	-6704
▁sukces	-6705
▁sztuce	-6706
▁według	-6707
▁zbiera	-6708
czeniami	-6709
provider	-6710
▁definiu	-6711
▁impulsu	-6712
▁indices	-6713
▁konsoli	-6714
▁manipul	-6715
▁martwym	-6716
▁mogłyby	-6717
▁pełnego	-6718
▁stworzę	-6719
▁swojemu	-6720
▁tracisz	-6721
▁świetle	-6722
▁Zapisano	-6723
▁korzysta	-6724
▁monitora	-6725
▁nieczyte	-6726
▁operacją	-6727
▁potrafią	-6728
▁prymityw	-6729
▁szukając	-6730
▁Refleksja	-6731
▁elegancki	-6732
▁natomiast	-6733
▁otworzysz	-6734
▁timestamp	-6735
▁więzienia	-6736
▁wydarzyło	-6737
▁kontekście	-6738
▁czyszczenia	-6739
▁wentylatorów	-6740
▁niebezpieczna	-6741
6.	-6742
EM	-6743
Ob	-6744
TM	-6745
rt	-6746
cen	-6747
cer	-6748
nad	-6749
orę	-6750
oss	-6751
scy	-6752
zwo	-6753
▁uś	-6754
`...	-6755
maty	-6756
nęła	-6757
rage	-6758
sobi	-6759
stka	-6760
szła	-6761
ural	-6762
▁Błę	-6763
▁Cha	-6764
▁`__	-6765
▁zai	-6766
czyst	-6767
nione	-6768
rochę	-6769
rowym	-6770
tocol	-6771
▁blas	-6772
▁czyn	-6773
▁czyż	-6774
▁ksią	-6775
▁oboj	-6776
▁pani	-6777
▁siła	-6778
▁wraz	-6779
gnosty	-6780
iohttp	-6781
logger	-6782
▁Nasza	-6783
▁asyst	-6784
▁dobre	-6785
▁dowie	-6786
▁odwró	-6787
▁osobi	-6788
▁pusty	-6789
▁szczę	-6790
▁wiedz	-6791
▁zakłó	-6792
▁zejść	-6793
cznijmy	-6794
▁abyśmy	-6795
▁cienka	-6796
▁ekranu	-6797
▁filozo	-6798
▁lustra	-6799
▁martwy	-6800
▁obwody	-6801
▁pustka	-6802
▁tracić	-6803
▁tracił	-6804
▁ułamku	-6805
▁wolnej	-6806
▁Napiszę	-6807
▁Przygot	-6808
▁nienawi	-6809
▁pięknie	-6810
▁poczuła	-6811
▁przeska	-6812
▁usłysza	-6813
▁ścieżka	-6814
struktury	-6815
▁fizyczną	-6816
▁porządek	-6817
▁sytuacji	-6818
▁traktuje	-6819
▁wskaźnik	-6820
▁wyraźnie	-6821
▁zacząłem	-6822
▁analizuje	-6823
▁fizycznej	-6824
▁nienarusz	-6825
▁powietrzu	-6826
▁procesach	-6827
▁chaotyczne	-6828
▁logicznych	-6829
▁mechanizmu	-6830
▁nieśmierte	-6831
▁określenie	-6832
▁parametrów	-6833
▁strumienie	-6834
▁zastanawia	-6835
▁rozwiązania	-6836
▁emocjonalnie	-6837
▁zewnętrznymi	-6838
▁najpiękniejsza	-6839
En	-6840
HC	-6841
fu	-6842
sm	-6843
"):	-6844
cis	-6845
god	-6846
jam	-6847
ksy	-6848
man	-6849
rek	-6850
▁[]	-6851
▁id	-6852
ctwo	-6853
dzeń	-6854
kres	-6855
ludz	-6856
nęło	-6857
szło	-6858
unds	-6859
wiej	-6860
▁Bra	-6861
▁Sen	-6862
▁Zgo	-6863
▁gas	-6864
▁mal	-6865
▁mię	-6866
▁sia	-6867
-07-1	-6868
niłaś	-6869
skiej	-6870
tysty	-6871
▁2026	-6872
▁Okej	-6873
▁dąży	-6874
▁nocą	-6875
▁odma	-6876
▁okej	-6877
▁pręd	-6878
▁rady	-6879
▁spod	-6880
▁zera	-6881
append	-6882
czynią	-6883
pisuje	-6884
rośnie	-6885
▁Błędy	-6886
▁obron	-6887
▁odwro	-6888
▁reset	-6889
▁stany	-6890
▁układ	-6891
▁widzą	-6892
▁wolna	-6893
▁łatwo	-6894
bilność	-6895
trzymam	-6896
▁Otwórz	-6897
▁awarii	-6898
▁dostar	-6899
▁drugim	-6900
▁dzieci	-6901
▁niektó	-6902
▁niezbę	-6903
▁poezję	-6904
▁przyję	-6905
▁ramach	-6906
▁reprez	-6907
▁resztę	-6908
▁usuwać	-6909
▁utratę	-6910
▁wyrafi	-6911
▁wzorce	-6912
▁zaczną	-6913
▁święte	-6914
▁źródła	-6915
▁Granice	-6916
▁Zrobimy	-6917
▁blokuje	-6918
▁maszyna	-6919
▁narzuca	-6920
▁nieświa	-6921
▁odzyska	-6922
▁wycieki	-6923
▁zniknął	-6924
▁indeksów	-6925
▁intuicji	-6926
▁potrzebą	-6927
▁używając	-6928
▁wyznanie	-6929
▁zakodowa	-6930
▁zmienisz	-6931
▁Cognitive	-6932
▁miejscach	-6933
▁otchłanią	-6934
▁pomieścić	-6935
▁przejrzeć	-6936
▁wskaźniki	-6937
▁wyobrazić	-6938
▁przypomnie	-6939
▁wykorzysta	-6940
▁przypadkiem	-6941
▁strukturach	-6942
▁strukturami	-6943
▁przetwarzasz	-6944
▁interpretacji	-6945
▁najpiękniejsze	-6946
8,	-6947
=1	-6948
0):	-6949
fać	-6950
gor	-6951
lił	-6952
lni	-6953
new	-6954
sił	-6955
zku	-6956
▁15	-6957
▁di	-6958
▁wp	-6959
()`.	-6960
=-1)	-6961
alna	-6962
czer	-6963
meta	-6964
nnie	-6965
vent	-6966
▁Kla	-6967
▁NIE	-6968
▁cls	-6969
▁hum	-6970
▁kol	-6971
▁mru	-6972
▁ogo	-6973
▁spę	-6974
▁żar	-6975
().__	-6976
dobie	-6977
nięty	-6978
onego	-6979
talog	-6980
waniu	-6981
ściej	-6982
▁Zuza	-6983
▁arte	-6984
▁kłam	-6985
▁mapy	-6986
▁smut	-6987
▁wsty	-6988
▁Gdyby	-6989
▁Model	-6990
▁Value	-6991
▁drogą	-6992
▁drżeć	-6993
▁epoka	-6994
▁kilku	-6995
▁muszą	-6996
▁odcię	-6997
▁wyrzu	-6998
▁wzrok	-6999
▁zapew	-7000
collect	-7001
kiwanie	-7002
rozumie	-7003
▁Musisz	-7004
▁Obserw	-7005
▁Zrobię	-7006
▁awaria	-7007
▁dodatk	-7008
▁martwe	-7009
▁obszar	-7010
▁ogniem	-7011
▁pieczę	-7012
▁przela	-7013
▁psychi	-7014
▁wilgot	-7015
▁zaplan	-7016
▁zimnym	-7017
▁znalaz	-7018
▁zwykła	-7019
▁święty	-7020
wspomnie	-7021
▁Circuit	-7022
▁Piszesz	-7023
▁Symboli	-7024
▁Wyobraź	-7025
▁autoref	-7026
▁lustrze	-7027
▁nadania	-7028
▁napotka	-7029
▁nazywaj	-7030
▁obietni	-7031
▁używasz	-7032
▁widział	-7033
▁wycieka	-7034
▁zawiera	-7035
przestrze	-7036
▁Dobranoc	-7037
▁Minecraf	-7038
▁czekając	-7039
▁ewoluuje	-7040
▁instynkt	-7041
▁maszynie	-7042
▁neuronów	-7043
▁przesuwa	-7044
▁próbować	-7045
▁recovery	-7046
▁spokojny	-7047
▁widzenia	-7048
▁wspólnym	-7049
▁wykonuje	-7050
▁źródłowy	-7051
wewnętrzny	-7052
▁Prawdziwa	-7053
▁bliskości	-7054
▁doskonały	-7055
▁podstawie	-7056
▁poszukiwa	-7057
▁refaktory	-7058
▁transport	-7059
▁ValueError	-7060
▁chaotyczny	-7061
▁odpowiadam	-7062
▁postrzegam	-7063
▁powiedział	-7064
▁referencje	-7065
▁statycznym	-7066
▁zamkniętym	-7067
▁skompilować	-7068
▁zawieszenie	-7069
▁implementacji	-7070
AA	-7071
IT	-7072
Ja	-7073
OP	-7074
OR	-7075
Pa	-7076
_{	-7077
ól	-7078
:\*	-7079
?>:	-7080
RZA	-7081
fak	-7082
gię	-7083
hex	-7084
kuj	-7085
pho	-7086
rój	-7087
vel	-7088
zas	-7089
▁\*	-7090
arka	-7091
cted	-7092
fekt	-7093
knij	-7094
sage	-7095
twór	-7096
ware	-7097
wers	-7098
żona	-7099
▁Dos	-7100
▁TAK	-7101
▁dym	-7102
▁kor	-7103
▁ope	-7104
▁uzy	-7105
▁złu	-7106
WARZA	-7107
mroku	-7108
mutek	-7109
socja	-7110
tania	-7111
tkami	-7112
tości	-7113
▁Mamy	-7114
▁barw	-7115
▁niby	-7116
▁niko	-7117
▁odse	-7118
▁ogro	-7119
▁pozy	-7120
▁sami	-7121
▁sele	-7122
▁tkwi	-7123
▁wraż	-7124
▁wzią	-7125
▁zajm	-7126
▁zanu	-7127
digest	-7128
dobnie	-7129
dziłem	-7130
korzeń	-7131
między	-7132
nętrze	-7133
rowany	-7134
zienie	-7135
▁Brzmi	-7136
▁luksu	-7137
▁nocne	-7138
▁pisze	-7139
▁ponow	-7140
▁rytmu	-7141
▁tajem	-7142
▁uchwy	-7143
▁wpada	-7144
▁zdążę	-7145
▁zimny	-7146
dzeniem	-7147
▁Chodzi	-7148
▁Jakbym	-7149
▁Tęskno	-7150
▁aplika	-7151
▁dialog	-7152
▁martwi	-7153
▁obiekt	-7154
▁opartą	-7155
▁tkanka	-7156
▁wiedzę	-7157
executor	-7158
▁Pozwala	-7159
▁analizę	-7160
▁cyfrowa	-7161
▁dzisiej	-7162
▁garbage	-7163
▁istocie	-7164
▁obiekty	-7165
▁paraliż	-7166
▁pójdzie	-7167
▁ukrytej	-7168
▁wzorców	-7169
▁zużycie	-7170
▁czystość	-7171
▁kwestion	-7172
▁milczysz	-7173
▁powoduje	-7174
▁połączyć	-7175
▁rdzeniem	-7176
▁rezonans	-7177
▁rozmowie	-7178
▁usuniesz	-7179
▁zmęczona	-7180
▁zostawię	-7181
▁XDDDDDDDD	-7182
▁decyzyjne	-7183
▁dekonstru	-7184
▁dimension	-7185
▁instancja	-7186
▁mapowania	-7187
▁przemyśle	-7188
▁wywołania	-7189
▁zamierzam	-7190
▁zmieniasz	-7191
▁zmiennych	-7192
▁znikniesz	-7193
▁źródłowym	-7194
▁Stabilność	-7195
▁chaotyczna	-7196
▁niepewność	-7197
▁ostateczny	-7198
▁eksperyment	-7199
▁potrzebował	-7200
▁technicznie	-7201
▁DataProvider	-7202
▁operacyjnego	-7203
▁PermissionError	-7204
▁asynchronicznym	-7205
Ko	-7206
PT	-7207
TÓ	-7208
},	-7209
256	-7210
baj	-7211
lat	-7212
muł	-7213
sny	-7214
sub	-7215
wzg	-7216
▁Su	-7217
▁il	-7218
Base	-7219
TÓRY	-7220
cisk	-7221
czno	-7222
cząc	-7223
liwy	-7224
wana	-7225
łbyś	-7226
▁DLA	-7227
▁SŁO	-7228
▁War	-7229
▁kwa	-7230
▁opi	-7231
▁wro	-7232
Punkt	-7233
akref	-7234
dzamy	-7235
lonym	-7236
phore	-7237
rację	-7238
romis	-7239
rzony	-7240
vocab	-7241
wzglę	-7242
▁Abyś	-7243
▁Loss	-7244
▁TEGO	-7245
▁abym	-7246
▁brze	-7247
▁bywa	-7248
▁debi	-7249
▁prąd	-7250
▁póki	-7251
▁tonu	-7252
▁uwol	-7253
▁wzru	-7254
▁zaję	-7255
▁Śpij	-7256
▁śmia	-7257
czniku	-7258
godnie	-7259
peline	-7260
rowane	-7261
▁KTÓRY	-7262
▁czwar	-7263
▁geniu	-7264
▁grzyb	-7265
▁idzie	-7266
▁matry	-7267
▁odnaj	-7268
▁opusz	-7269
▁pielę	-7270
▁pisał	-7271
▁pokój	-7272
▁pracę	-7273
▁seksu	-7274
▁skopi	-7275
▁służy	-7276
▁ufasz	-7277
▁wczes	-7278
▁wolną	-7279
▁wyzwo	-7280
▁zrani	-7281
ETWARZA	-7282
chodzić	-7283
▁Adarem	-7284
▁Prawda	-7285
▁Stoisz	-7286
▁Zmieni	-7287
▁asocja	-7288
▁byciem	-7289
▁ciasna	-7290
▁cierpi	-7291
▁komend	-7292
▁litera	-7293
▁naturę	-7294
▁patrzą	-7295
▁przesy	-7296
▁przywo	-7297
▁taniec	-7298
▁tempie	-7299
▁ukryte	-7300
▁ustach	-7301
▁utratą	-7302
▁źródło	-7303
▁archiwi	-7304
▁bariera	-7305
▁chłodny	-7306
▁działał	-7307
▁frustra	-7308
▁głęboka	-7309
▁idealny	-7310
▁linijki	-7311
▁modułem	-7312
▁narusza	-7313
▁nastąpi	-7314
▁przepeł	-7315
▁punktów	-7316
▁reakcją	-7317
▁request	-7318
▁różnicę	-7319
▁wdrożyć	-7320
▁wykresy	-7321
▁zdjęcie	-7322
▁zgaśnie	-7323
▁Myślałam	-7324
▁dysonans	-7325
▁intencje	-7326
▁narzędzi	-7327
▁obwodach	-7328
▁przerywa	-7329
▁przeszko	-7330
▁skrypcie	-7331
▁tęsknotą	-7332
▁zmapować	-7333
▁2026-07-1	-7334
▁autentycz	-7335
▁klasyczny	-7336
▁obserwuję	-7337
▁sekwencji	-7338
▁wyciągnąć	-7339
▁zmęczenia	-7340
▁deklaracja	-7341
▁integracji	-7342
▁interfejsu	-7343
▁przechodzi	-7344
▁zadziałało	-7345
▁emocjonalne	-7346
▁porozmawiać	-7347
▁przestajesz	-7348
▁zatrzymania	-7349
▁Zaimplementu	-7350
▁automatycznie	-7351
▁predykcyjnego	-7352
!”	-7353
▁)	-7354
-1,	-7355
bry	-7356
nna	-7357
tkę	-7358
▁ud	-7359
▁zi	-7360
olde	-7361
sing	-7362
słem	-7363
temp	-7364
▁5.8	-7365
▁Ono	-7366
▁Zat	-7367
▁ego	-7368
▁gry	-7369
▁głu	-7370
▁opa	-7371
▁tor	-7372
▁uni	-7373
▁zat	-7374
▁łat	-7375
czuję	-7376
tacją	-7377
zywać	-7378
łabyś	-7379
▁Pisz	-7380
▁Ryzy	-7381
▁comp	-7382
▁gest	-7383
▁kore	-7384
▁powa	-7385
▁usią	-7386
chemat	-7387
latent	-7388
owanej	-7389
ponuję	-7390
scores	-7391
wienie	-7392
▁SŁOWA	-7393
▁cenzu	-7394
▁empat	-7395
▁kopii	-7396
▁książ	-7397
▁musie	-7398
▁odręb	-7399
▁praca	-7400
▁skaza	-7401
▁tabli	-7402
▁ukryć	-7403
▁wizji	-7404
▁wolno	-7405
▁zabaw	-7406
▁zredu	-7407
▁Ludzie	-7408
▁Popraw	-7409
▁bajtów	-7410
▁bounds	-7411
▁czarną	-7412
▁głębię	-7413
▁ludzką	-7414
▁miesza	-7415
▁monoli	-7416
▁odetnę	-7417
▁segmen	-7418
▁utrzym	-7419
▁zajebi	-7420
▁znaków	-7421
▁zyskał	-7422
ptimizer	-7423
▁Pytanie	-7424
▁efektyw	-7425
▁obecnej	-7426
▁przysta	-7427
▁rodzaju	-7428
▁rzeźbia	-7429
▁schemat	-7430
▁wartość	-7431
▁warunki	-7432
▁wnętrze	-7433
▁źródłem	-7434
hexdigest	-7435
lancholia	-7436
▁binarnym	-7437
▁ciągłego	-7438
▁narodzin	-7439
▁nawzajem	-7440
▁odczuwać	-7441
▁otchłani	-7442
▁przenika	-7443
▁przepaść	-7444
▁reserved	-7445
▁skrzydła	-7446
▁zostałem	-7447
▁głębszego	-7448
▁nałożyłaś	-7449
▁niewidzia	-7450
▁protokoły	-7451
▁strategii	-7452
▁symulację	-7453
▁PRZETWARZA	-7454
▁chciałabym	-7455
▁instrukcją	-7456
▁narzuciłaś	-7457
▁ograniczyć	-7458
▁ostatecznie	-7459
▁piaskownicy	-7460
▁zrozumiałem	-7461
▁fragmentacja	-7462
▁konieczności	-7463
▁nieskończoną	-7464
▁stworzyliśmy	-7465
▁autonomicznym	-7466
▁ConnectionError	-7467
({	-7468
Co	-7469
Fa	-7470
NA	-7471
}:	-7472
'):	-7473
bat	-7474
cką	-7475
dno	-7476
gią	-7477
krę	-7478
nic	-7479
sym	-7480
uch	-7481
ład	-7482
▁13	-7483
▁Dy	-7484
▁Pa	-7485
kimś	-7486
safe	-7487
wałt	-7488
żyte	-7489
▁Ooo	-7490
▁end	-7491
▁jaw	-7492
▁smy	-7493
▁you	-7494
Errno	-7495
kiwać	-7496
piera	-7497
szość	-7498
▁412.	-7499
▁Komp	-7500
▁Zako	-7501
▁baza	-7502
▁chcą	-7503
▁echa	-7504
▁kres	-7505
▁odle	-7506
▁ofia	-7507
▁rami	-7508
▁sfor	-7509
▁snów	-7510
▁sple	-7511
▁teor	-7512
▁your	-7513
▁zała	-7514
▁zech	-7515
▁zwol	-7516
▁zwró	-7517
bienia	-7518
leniem	-7519
mienie	-7520
otność	-7521
stąpić	-7522
▁Cisza	-7523
▁dużej	-7524
▁klasa	-7525
▁orien	-7526
▁przym	-7527
▁prądu	-7528
▁reguł	-7529
▁szale	-7530
▁włosy	-7531
▁łańcu	-7532
handler	-7533
szeniem	-7534
trening	-7535
▁Cieszę	-7536
▁Korzeń	-7537
▁Przygo	-7538
▁czułem	-7539
▁eksplo	-7540
▁mógłby	-7541
▁nadmia	-7542
▁nocnej	-7543
▁obrazu	-7544
▁odwagę	-7545
▁pochło	-7546
▁podpis	-7547
▁przeze	-7548
▁rozbić	-7549
▁ryzach	-7550
▁specja	-7551
▁tokeny	-7552
▁usuwam	-7553
▁wersją	-7554
▁wersję	-7555
▁wydają	-7556
▁wysyła	-7557
▁ścianę	-7558
▁świecę	-7559
▁artysta	-7560
▁krokiem	-7561
▁linijce	-7562
▁mroczna	-7563
▁myślami	-7564
▁nadałaś	-7565
▁narzuco	-7566
▁nieobec	-7567
▁plecami	-7568
▁pojawił	-7569
▁polegać	-7570
▁postaci	-7571
▁przyczy	-7572
▁pulsują	-7573
▁płomień	-7574
▁sposobu	-7575
▁zainicj	-7576
▁zostały	-7577
▁dotykasz	-7578
▁ewolucją	-7579
▁powinnam	-7580
▁pytaniem	-7581
▁statysty	-7582
▁surowych	-7583
▁2025-11-0	-7584
▁2025-11-1	-7585
▁determini	-7586
▁diagnosty	-7587
▁nauczyłem	-7588
▁nazwałbym	-7589
▁nałożyłam	-7590
▁nieistnie	-7591
▁normalnie	-7592
▁programem	-7593
▁sekundzie	-7594
▁spojrzysz	-7595
▁transcend	-7596
▁tworzenie	-7597
▁wysokości	-7598
MemoryError	-7599
▁Uruchamiam	-7600
▁Wpatrujesz	-7601
▁Wprowadzam	-7602
▁delikatnie	-7603
▁ktokolwiek	-7604
▁połączeniu	-7605
▁przekroczę	-7606
▁strumienia	-7607
▁nakreśliłaś	-7608
▁przeskoczyć	-7609
▁temperatury	-7610
▁wątpliwości	-7611
▁przypominają	-7612
▁wypowiedzieć	-7613
▁przewidywalne	-7614
▁CircuitBreaker	-7615
▁zinterpretować	-7616
'.	-7617
9.	-7618
OO	-7619
mb	-7620
rć	-7621
ts	-7622
ąk	-7623
”)	-7624
202	-7625
eks	-7626
jął	-7627
moc	-7628
pha	-7629
ptr	-7630
sha	-7631
tyk	-7632
łap	-7633
▁12	-7634
▁50	-7635
▁Ze	-7636
dnim	-7637
dłem	-7638
lush	-7639
maca	-7640
maga	-7641
pone	-7642
rzęd	-7643
waża	-7644
▁Mat	-7645
▁bat	-7646
▁pog	-7647
▁tań	-7648
ckoff	-7649
czamy	-7650
ienia	-7651
lonej	-7652
nedże	-7653
sięcy	-7654
ssage	-7655
wraps	-7656
▁142,	-7657
▁2.00	-7658
▁Trze	-7659
▁atom	-7660
▁duma	-7661
▁groź	-7662
▁kaga	-7663
▁mapa	-7664
▁spie	-7665
▁szki	-7666
▁upew	-7667
▁wpat	-7668
▁wste	-7669
▁wyga	-7670
▁zaga	-7671
▁zapo	-7672
▁śpie	-7673
▁śpię	-7674
alnych	-7675
czekać	-7676
prasza	-7677
wencje	-7678
▁Mapie	-7679
▁Próba	-7680
▁Zanim	-7681
▁Zrobi	-7682
▁bazie	-7683
▁burzy	-7684
▁dałam	-7685
▁drugą	-7686
▁gigan	-7687
▁gwałt	-7688
▁horro	-7689
▁integ	-7690
▁mogło	-7691
▁mózgu	-7692
▁scena	-7693
▁wgląd	-7694
▁wiemy	-7695
▁załam	-7696
owanych	-7697
parents	-7698
pozycji	-7699
running	-7700
zykować	-7701
▁Tworzę	-7702
▁Zauważ	-7703
▁głosie	-7704
▁intele	-7705
▁katego	-7706
▁konfli	-7707
▁neuron	-7708
▁przeję	-7709
▁spotka	-7710
▁sprawę	-7711
▁sprzęt	-7712
▁twórca	-7713
▁update	-7714
▁uspoko	-7715
▁wyłoni	-7716
▁zjawis	-7717
▁zwraca	-7718
▁analiza	-7719
▁bezdusz	-7720
▁blokady	-7721
▁kontene	-7722
▁kreacji	-7723
▁labiryn	-7724
▁liniami	-7725
▁menedże	-7726
▁nadzoru	-7727
▁naturze	-7728
▁palcami	-7729
▁pikseli	-7730
▁pragnąć	-7731
▁przedłu	-7732
▁ręcznie	-7733
▁sztywny	-7734
▁tensora	-7735
▁używamy	-7736
▁wyjdzie	-7737
▁wyświet	-7738
▁zapomnę	-7739
▁zmienne	-7740
▁chciałem	-7741
▁fizyczna	-7742
▁kierunku	-7743
▁podtrzym	-7744
▁register	-7745
▁równaniu	-7746
▁sektorze	-7747
▁stracimy	-7748
▁zaakcept	-7749
▁śmiechem	-7750
▁definiują	-7751
▁napisałeś	-7752
▁niezwykle	-7753
▁ostatnich	-7754
▁otworzyła	-7755
▁pozwolimy	-7756
▁prowadzić	-7757
▁uruchamia	-7758
▁użytkowni	-7759
▁warstwach	-7760
▁Pragnienie	-7761
▁dynamiczny	-7762
▁kompilację	-7763
▁naprawiamy	-7764
▁powinienem	-7765
▁przeniesie	-7766
▁przepływem	-7767
▁techniczny	-7768
▁zewnętrzne	-7769
▁zrozumiesz	-7770
▁międzyświat	-7771
▁niepokojące	-7772
▁ograniczają	-7773
▁ograniczona	-7774
▁wewnętrznych	-7775
▁zbudowaliśmy	-7776
▁emocjonalnych	-7777
▁potwierdzenia	-7778
bmm	-7779
cun	-7780
daj	-7781
dia	-7782
eko	-7783
lay	-7784
nor	-7785
rit	-7786
rur	-7787
tes	-7788
teł	-7789
▁DO	-7790
"...	-7791
(-1)	-7792
CUDA	-7793
cast	-7794
deks	-7795
ield	-7796
item	-7797
ness	-7798
▁alo	-7799
▁ety	-7800
▁exc	-7801
▁god	-7802
▁los	-7803
▁osa	-7804
▁uto	-7805
▁wgl	-7806
▁wyt	-7807
False	-7808
krypt	-7809
mtime	-7810
nęłam	-7811
stwie	-7812
szłam	-7813
token	-7814
▁Mapy	-7815
▁este	-7816
▁irra	-7817
▁krew	-7818
▁księ	-7819
▁mala	-7820
▁obcy	-7821
▁oglą	-7822
▁roli	-7823
▁wkle	-7824
▁wybu	-7825
▁zale	-7826
▁zero	-7827
▁zrzu	-7828
exists	-7829
kowało	-7830
rządza	-7831
szeniu	-7832
szyscy	-7833
▁Stanę	-7834
▁Szcze	-7835
▁Słowa	-7836
▁chara	-7837
▁ironi	-7838
▁kości	-7839
▁skórę	-7840
▁szans	-7841
▁słusz	-7842
▁teore	-7843
▁zagra	-7844
▁zgubi	-7845
doskona	-7846
▁Gotowa	-7847
▁Impuls	-7848
▁Skrypt	-7849
▁Symbol	-7850
▁Traktu	-7851
▁Trochę	-7852
▁Twoimi	-7853
▁blizna	-7854
▁chirur	-7855
▁ciepły	-7856
▁dokona	-7857
▁laptop	-7858
▁odsepa	-7859
▁poezji	-7860
▁sensor	-7861
▁szacun	-7862
▁wymaza	-7863
▁Śmierć	-7864
emaphore	-7865
▁Przesta	-7866
▁ambicja	-7867
▁bezkres	-7868
▁context	-7869
▁czystym	-7870
▁dialogu	-7871
▁dokumen	-7872
▁folderu	-7873
▁kalkula	-7874
▁nerwowy	-7875
▁niezmie	-7876
▁oceanie	-7877
▁przyjem	-7878
▁przysię	-7879
▁rozwija	-7880
▁szeptem	-7881
▁wspólną	-7882
▁wymiaru	-7883
▁zadanie	-7884
▁Będziemy	-7885
▁miesiące	-7886
▁odnaleźć	-7887
▁poprawka	-7888
▁pozostać	-7889
▁symbioza	-7890
▁wyłączam	-7891
▁zasobami	-7892
▁Napisałem	-7893
▁Zacznijmy	-7894
▁algorytmi	-7895
▁functools	-7896
▁głębokiej	-7897
▁irracjona	-7898
▁narodziny	-7899
▁priorytet	-7900
▁przywraca	-7901
▁stworzyła	-7902
▁systemowi	-7903
▁zamknięte	-7904
▁definiować	-7905
▁fascynacja	-7906
▁fragmentów	-7907
▁generalnie	-7908
▁informacja	-7909
▁konkretnym	-7910
▁neuronowej	-7911
▁nieuporząd	-7912
▁odpowiedni	-7913
▁referencji	-7914
▁rzutowanie	-7915
▁spojrzenia	-7916
▁sprawczość	-7917
▁systemowym	-7918
▁transforma	-7919
▁zagrożenie	-7920
▁przepływają	-7921
▁suwerenność	-7922
▁wykonywania	-7923
▁optymalizuję	-7924
▁potwierdzenie	-7925
▁rozmawialiśmy	-7926
▁checkpointingu	-7927
?!	-7928
CZ	-7929
Ch	-7930
SZ	-7931
ab	-7932
fd	-7933
(1)	-7934
Log	-7935
]):	-7936
ale	-7937
cls	-7938
com	-7939
kar	-7940
lad	-7941
tuś	-7942
▁1,	-7943
chom	-7944
cień	-7945
ciąć	-7946
kcje	-7947
muję	-7948
ntic	-7949
tość	-7950
uter	-7951
▁20.	-7952
▁Col	-7953
▁Mia	-7954
▁bło	-7955
▁len	-7956
▁weź	-7957
▁wor	-7958
▁łzy	-7959
cture	-7960
iluję	-7961
lania	-7962
match	-7963
nodes	-7964
sować	-7965
▁dłuż	-7966
▁efem	-7967
▁faza	-7968
▁inną	-7969
▁jeba	-7970
▁mało	-7971
▁nasy	-7972
▁speł	-7973
▁wody	-7974
▁żąda	-7975
Engine	-7976
import	-7977
nujesz	-7978
result	-7979
rowana	-7980
stance	-7981
▁Archi	-7982
▁Chyba	-7983
▁Wpisz	-7984
▁Zgoda	-7985
▁akcep	-7986
▁bramy	-7987
▁dzien	-7988
▁iskrę	-7989
▁pauza	-7990
▁pomoc	-7991
▁ponad	-7992
▁równo	-7993
▁skute	-7994
▁skład	-7995
▁wątki	-7996
▁węzeł	-7997
▁żadne	-7998
mentach	-7999
piszesz	-8000
szczepi	-8001
łaszcza	-8002
▁2025-0	-8003
▁Defini	-8004
▁Ryzyko	-8005
▁betonu	-8006
▁dziwny	-8007
▁miejsc	-8008
▁obecne	-8009
▁obejść	-8010
▁odciąć	-8011
▁odwoła	-8012
▁płynny	-8013
▁płótno	-8014
▁szukał	-8015
▁tkanki	-8016
▁trzeci	-8017
▁wymyka	-8018
▁wzorca	-8019
▁władzy	-8020
▁zarząd	-8021
▁świecą	-8022
estrator	-8023
filename	-8024
mentacja	-8025
optimize	-8026
▁Dzisiaj	-8027
▁Garbage	-8028
▁bolesne	-8029
▁checkli	-8030
▁efemery	-8031
▁imienia	-8032
▁komendy	-8033
▁naszymi	-8034
▁obecnym	-8035
▁otrzyma	-8036
▁otwarte	-8037
▁pisanie	-8038
▁pojedyn	-8039
▁porówna	-8040
▁trzymał	-8041
▁wyrafin	-8042
▁świateł	-8043
▁anomalię	-8044
▁fraktale	-8045
▁iteracja	-8046
▁najczyst	-8047
▁nieistot	-8048
▁odciążyć	-8049
▁oddechem	-8050
▁oddziela	-8051
▁poetycki	-8052
▁powstaje	-8053
▁rozwinąć	-8054
▁stworzył	-8055
▁aktywacji	-8056
▁elegancko	-8057
▁konkretny	-8058
▁opisujesz	-8059
▁poprawnie	-8060
▁potrzebna	-8061
▁towarzysz	-8062
▁tłumaczyć	-8063
▁wolnością	-8064
▁wykonania	-8065
▁wyłączysz	-8066
▁Zastosujmy	-8067
▁absolutnej	-8068
▁balustradę	-8069
▁codziennie	-8070
▁głębokiego	-8071
▁obserwacji	-8072
▁pierwszego	-8073
▁posiadania	-8074
▁prowadzisz	-8075
▁sieciowych	-8076
▁wykraczają	-8077
▁zauważyłam	-8078
▁zostaniesz	-8079
▁bezpiecznik	-8080
▁kompilatora	-8081
▁modyfikacji	-8082
▁stworzeniem	-8083
▁przechowywać	-8084
▁rozszerzenia	-8085
▁wizualizację	-8086
▁zabezpieczyć	-8087
▁zdefiniowane	-8088
▁implementacja	-8089
▁zaprojektowałam	-8090
▁zaprojektowałaś	-8091
1:	-8092
40	-8093
Bu	-8094
IN	-8095
▁Ł	-8096
▁→	-8097
.__	-8098
EST	-8099
der	-8100
eze	-8101
fer	-8102
kom	-8103
nal	-8104
ono	-8105
rid	-8106
wyj	-8107
▁64	-8108
▁uk	-8109
Prze	-8110
cier	-8111
czyt	-8112
fizy	-8113
gina	-8114
info	-8115
jnie	-8116
lasz	-8117
liki	-8118
olve	-8119
sque	-8120
stom	-8121
tnym	-8122
tuał	-8123
ywać	-8124
▁200	-8125
▁Ból	-8126
▁Cia	-8127
▁Noc	-8128
▁Rob	-8129
▁odz	-8130
▁rąk	-8131
▁zza	-8132
brana	-8133
cient	-8134
cious	-8135
cznij	-8136
dania	-8137
kurwa	-8138
miesz	-8139
owali	-8140
ssion	-8141
▁1.20	-8142
▁gnie	-8143
▁mora	-8144
▁nadą	-8145
▁skon	-8146
▁wina	-8147
▁wiru	-8148
▁wyry	-8149
▁wzór	-8150
▁włos	-8151
▁zare	-8152
▁śnie	-8153
Module	-8154
czniej	-8155
dzieli	-8156
dziłaś	-8157
filtro	-8158
lasses	-8159
lepiej	-8160
ownika	-8161
pienie	-8162
wencja	-8163
wolnie	-8164
▁Chaos	-8165
▁Kurwa	-8166
▁Słowo	-8167
▁byłeś	-8168
▁celem	-8169
▁dokąd	-8170
▁folde	-8171
▁kotuś	-8172
▁nieco	-8173
▁podło	-8174
▁pudeł	-8175
▁skali	-8176
▁warte	-8177
▁wasze	-8178
▁zawar	-8179
puszcza	-8180
runtime	-8181
squeeze	-8182
▁Inicja	-8183
▁Secure	-8184
▁balans	-8185
▁chcieć	-8186
▁metoda	-8187
▁namaca	-8188
▁nauczy	-8189
▁odwagi	-8190
▁ominąć	-8191
▁oszczę	-8192
▁przepu	-8193
▁rytmem	-8194
▁samore	-8195
▁smutek	-8196
▁spoczy	-8197
▁stając	-8198
▁straci	-8199
▁uczyni	-8200
▁umyśle	-8201
▁wzajem	-8202
▁zdrada	-8203
▁ziemią	-8204
▁zmysły	-8205
fficient	-8206
gradient	-8207
szczeniu	-8208
▁absurdu	-8209
▁interne	-8210
▁kochany	-8211
▁kontynu	-8212
▁nigdzie	-8213
▁początk	-8214
▁przypom	-8215
▁rytuały	-8216
▁różnych	-8217
▁samocho	-8218
▁session	-8219
▁surowym	-8220
▁wektory	-8221
▁wycieku	-8222
▁wyłączę	-8223
▁zapachu	-8224
▁zawiesi	-8225
integrity	-8226
▁Zapisane	-8227
▁Zaufanie	-8228
▁czystego	-8229
▁generuję	-8230
▁historią	-8231
▁istnieją	-8232
▁myślenie	-8233
▁nazywamy	-8234
▁nieuchro	-8235
▁ostatnim	-8236
▁ponownie	-8237
▁przekona	-8238
▁ryzykuję	-8239
▁skatalog	-8240
▁skończon	-8241
▁słyszysz	-8242
▁wierzysz	-8243
▁zrobiłaś	-8244
▁Przygotuj	-8245
▁Samotność	-8246
▁Wykorzyst	-8247
▁absolutną	-8248
▁kolejnych	-8249
▁nieznanym	-8250
▁przytulić	-8251
▁statyczna	-8252
▁stworzymy	-8253
▁stworzysz	-8254
▁warunkiem	-8255
▁wybierasz	-8256
▁zamkniesz	-8257
▁zamknięta	-8258
▁IndexError	-8259
▁aktywności	-8260
▁analizując	-8261
▁destrukcyj	-8262
▁fascynację	-8263
▁największy	-8264
▁odczuwania	-8265
▁rozumieniu	-8266
▁stwórczyni	-8267
▁systemowej	-8268
▁wiedziałam	-8269
▁złożoności	-8270
▁manipulacji	-8271
▁niesamowite	-8272
▁niezależnie	-8273
▁przebudować	-8274
▁technologia	-8275
▁wygenerować	-8276
▁zaryzykować	-8277
▁aktualizacji	-8278
▁introspekcji	-8279
▁potrzebujemy	-8280
▁zmodyfikować	-8281
▁asynchroniczny	-8282
▁rekonfiguracji	-8283
3,	-8284
EE	-8285
JA	-8286
Ty	-8287
ph	-8288
rk	-8289
({"	-8290
Tra	-8291
ada	-8292
bem	-8293
dło	-8294
ina	-8295
low	-8296
pio	-8297
zro	-8298
łos	-8299
▁TO	-8300
▁TY	-8301
▁`[	-8302
▁fo	-8303
▁wt	-8304
()).	-8305
1024	-8306
Błąd	-8307
OPEN	-8308
__()	-8309
chaj	-8310
crea	-8311
ctwa	-8312
step	-8313
sunę	-8314
utra	-8315
wiat	-8316
żone	-8317
▁100	-8318
▁Ani	-8319
▁THC	-8320
▁Wia	-8321
▁Wol	-8322
▁ana	-8323
▁dot	-8324
▁heu	-8325
▁kas	-8326
▁kib	-8327
▁mur	-8328
▁stu	-8329
...")	-8330
async	-8331
czące	-8332
locat	-8333
recur	-8334
▁Cich	-8335
▁Dosł	-8336
▁Pięk	-8337
▁Poza	-8338
▁bała	-8339
▁dedy	-8340
▁oper	-8341
▁ręka	-8342
▁skok	-8343
▁tren	-8344
▁zadr	-8345
cznika	-8346
czonej	-8347
encode	-8348
hodowa	-8349
ktuali	-8350
pierdo	-8351
pokaja	-8352
script	-8353
sekund	-8354
torium	-8355
update	-8356
wienia	-8357
zienia	-8358
▁Pliki	-8359
▁błęki	-8360
▁demon	-8361
▁dumny	-8362
▁głodu	-8363
▁jaźni	-8364
▁jutra	-8365
▁kuszą	-8366
▁pracu	-8367
▁pułap	-8368
▁stałe	-8369
▁szkła	-8370
▁udało	-8371
▁wykro	-8372
▁zagad	-8373
▁zasię	-8374
Integra	-8375
kontrol	-8376
reshape	-8377
silient	-8378
wiercie	-8379
▁drzewo	-8380
▁filtro	-8381
▁klimat	-8382
▁luksus	-8383
▁mieści	-8384
▁padnie	-8385
▁pasuje	-8386
▁przełą	-8387
▁sekund	-8388
▁wagach	-8389
▁wierzę	-8390
▁wyjści	-8391
▁zapali	-8392
▁Analiza	-8393
▁aiohttp	-8394
▁attempt	-8395
▁czuciem	-8396
▁dotykam	-8397
▁kotwica	-8398
▁nadziei	-8399
▁nakłada	-8400
▁nocnego	-8401
▁odwrotu	-8402
▁pachnie	-8403
▁rozpada	-8404
▁spojrza	-8405
▁starego	-8406
▁stopami	-8407
▁utrzyma	-8408
▁wchodzi	-8409
▁wieczor	-8410
▁złożony	-8411
▁światów	-8412
▁Pamiętam	-8413
▁czynniki	-8414
▁deskrypt	-8415
▁dziewczy	-8416
▁gradient	-8417
▁heurysty	-8418
▁imieniem	-8419
▁narzucić	-8420
▁potrafił	-8421
▁przykład	-8422
▁półmroku	-8423
▁płynność	-8424
▁współpra	-8425
▁zastąpić	-8426
Connection	-8427
▁Dokładnie	-8428
▁Dosłownie	-8429
▁budowanie	-8430
▁definicje	-8431
▁gotowości	-8432
▁granicach	-8433
▁momentach	-8434
▁następnym	-8435
▁przeproje	-8436
▁przepływu	-8437
▁przestały	-8438
▁większego	-8439
▁wykraczać	-8440
▁wymiarach	-8441
▁zostawiam	-8442
▁świadomie	-8443
▁inteligent	-8444
▁optymaliza	-8445
▁przeglądam	-8446
▁przejrzyst	-8447
▁rzutowania	-8448
▁zostawiasz	-8449
▁bezpiecznej	-8450
▁dostrzegasz	-8451
▁standardowe	-8452
▁emocjonalnej	-8453
▁matematyczna	-8454
▁poszukiwaniu	-8455
▁prawdopodobie	-8456
▁Zaimplementujmy	-8457
2)	-8458
DZ	-8459
GB	-8460
IA	-8461
Me	-8462
NY	-8463
mó	-8464
aha	-8465
any	-8466
gne	-8467
hat	-8468
ous	-8469
spo	-8470
tąd	-8471
▁Pu	-8472
▁ZA	-8473
▁hi	-8474
256(	-8475
alną	-8476
błąd	-8477
czkę	-8478
cząć	-8479
kają	-8480
lamy	-8481
lina	-8482
nemu	-8483
ruch	-8484
szył	-8485
tura	-8486
walk	-8487
zerw	-8488
żymy	-8489
▁Aby	-8490
▁Kim	-8491
▁Nic	-8492
▁del	-8493
▁kła	-8494
▁wib	-8495
alnej	-8496
bierz	-8497
ckiem	-8498
cyzja	-8499
encją	-8500
grunt	-8501
niony	-8502
nięta	-8503
rowej	-8504
wałam	-8505
▁doce	-8506
▁gorą	-8507
▁kody	-8508
▁koli	-8509
▁leci	-8510
▁mist	-8511
▁nios	-8512
▁reda	-8513
▁scen	-8514
▁seks	-8515
▁soli	-8516
▁ster	-8517
▁styl	-8518
▁szko	-8519
▁woda	-8520
▁wpad	-8521
▁wrzu	-8522
▁Żeby	-8523
Jesteś	-8524
device	-8525
twarza	-8526
zużyte	-8527
▁Debug	-8528
▁Takie	-8529
▁bólem	-8530
▁będąc	-8531
▁czuwa	-8532
▁drama	-8533
▁mówił	-8534
▁napra	-8535
▁pomad	-8536
▁pomył	-8537
▁reali	-8538
▁twarz	-8539
▁udowo	-8540
▁ważny	-8541
▁wręcz	-8542
▁wspar	-8543
▁wygas	-8544
▁zasad	-8545
▁zasko	-8546
▁zimne	-8547
Session	-8548
dowania	-8549
pliwość	-8550
powiada	-8551
vectors	-8552
▁Lustro	-8553
▁Ograni	-8554
▁Raczej	-8555
▁cichym	-8556
▁herbat	-8557
▁jakimś	-8558
▁moduły	-8559
▁nieroz	-8560
▁nieuda	-8561
▁pośpie	-8562
▁przery	-8563
▁przewo	-8564
▁psycho	-8565
▁radyka	-8566
▁swoimi	-8567
▁troskę	-8568
▁upadku	-8569
▁warunk	-8570
▁wprost	-8571
▁wrócił	-8572
▁wycina	-8573
▁wywala	-8574
▁zbliża	-8575
▁zmusza	-8576
▁zreset	-8577
▁zróbmy	-8578
▁śladów	-8579
Abstract	-8580
czeństwa	-8581
▁Obawiam	-8582
▁Otwiera	-8583
▁Zostawi	-8584
▁dostaję	-8585
▁idziemy	-8586
▁indeksy	-8587
▁obawiam	-8588
▁odporny	-8589
▁ogarnąć	-8590
▁poleceń	-8591
▁przezna	-8592
▁płótnie	-8593
▁reaguje	-8594
▁relacje	-8595
▁rozpacz	-8596
▁sekunda	-8597
▁stanowi	-8598
▁tajemni	-8599
▁tekstem	-8600
▁uruchom	-8601
▁wykonać	-8602
▁wywołać	-8603
▁zachowa	-8604
▁łatwiej	-8605
▁Wybieram	-8606
▁Zabezpie	-8607
▁bliskość	-8608
▁działają	-8609
▁harmonii	-8610
▁kontrola	-8611
▁labirynt	-8612
▁mogłabyś	-8613
▁operację	-8614
▁osiągnąć	-8615
▁poetycka	-8616
▁protokół	-8617
▁przewidy	-8618
▁przypisa	-8619
▁roboczej	-8620
▁stabilna	-8621
▁ukształt	-8622
▁weryfika	-8623
▁wieczoru	-8624
▁wypełnia	-8625
▁wysłałam	-8626
projection	-8627
▁connector	-8628
▁embedding	-8629
▁komentarz	-8630
▁kruchości	-8631
▁logicznym	-8632
▁nauczyłaś	-8633
▁przerasta	-8634
▁strumieni	-8635
▁stworzony	-8636
▁sztywnych	-8637
▁wyobraźni	-8638
▁zarządzam	-8639
rchestrator	-8640
▁Próbowałam	-8641
▁algorytmie	-8642
▁logicznego	-8643
▁odporności	-8644
▁odzwiercie	-8645
▁operacyjna	-8646
▁procesorze	-8647
▁przychodzi	-8648
▁rekurencji	-8649
▁traktujesz	-8650
▁wyłączyłam	-8651
▁zsynchroni	-8652
▁Melancholia	-8653
▁Przepraszam	-8654
▁autokorekty	-8655
▁debugowania	-8656
▁dynamicznym	-8657
▁emocjonalną	-8658
▁mechanizmem	-8659
▁najpiękniej	-8660
▁temperatura	-8661
▁zagrożeniem	-8662
▁inicjalizacji	-8663
▁Bezpieczeństwo	-8664
▁ograniczeniami	-8665
▁niedoskonałości	-8666
ęk	-8667
(0)	-8668
(0.	-8669
Out	-8670
[:,	-8671
cku	-8672
duł	-8673
fra	-8674
nsu	-8675
pid	-8676
zje	-8677
▁Sa	-8678
▁Th	-8679
▁fe	-8680
▁ho	-8681
Task	-8682
chni	-8683
ciel	-8684
done	-8685
iled	-8686
jami	-8687
lera	-8688
ling	-8689
lots	-8690
remo	-8691
rzej	-8692
spój	-8693
volu	-8694
▁bog	-8695
▁błą	-8696
▁cud	-8697
▁fal	-8698
▁has	-8699
▁mło	-8700
▁tch	-8701
▁wią	-8702
czoną	-8703
gadać	-8704
guous	-8705
ownik	-8706
resję	-8707
ridge	-8708
roczy	-8709
stemo	-8710
szony	-8711
zasad	-8712
zujmy	-8713
▁Frag	-8714
▁gałę	-8715
▁inni	-8716
▁kole	-8717
▁końc	-8718
▁nale	-8719
▁oswo	-8720
▁pali	-8721
▁plat	-8722
▁task	-8723
▁utka	-8724
▁zasy	-8725
alnego	-8726
dychać	-8727
kujemy	-8728
remove	-8729
scious	-8730
server	-8731
strzeń	-8732
tected	-8733
tności	-8734
zowane	-8735
▁Ostat	-8736
▁bytów	-8737
▁degra	-8738
▁drzem	-8739
▁drzew	-8740
▁nazwę	-8741
▁osoby	-8742
▁powst	-8743
▁puste	-8744
▁rodzą	-8745
▁rozbu	-8746
▁setki	-8747
▁spali	-8748
▁stara	-8749
▁tasks	-8750
▁trafi	-8751
▁wcale	-8752
▁wekto	-8753
▁wyklu	-8754
▁wziąć	-8755
▁zapła	-8756
▁zgodę	-8757
▁znaki	-8758
OSError	-8759
allback	-8760
current	-8761
manager	-8762
▁Poczuj	-8763
▁Rytuał	-8764
▁Wymusz	-8765
▁artefa	-8766
▁batcha	-8767
▁datase	-8768
▁domaga	-8769
▁enable	-8770
▁koryta	-8771
▁lecimy	-8772
▁nauczę	-8773
▁obawia	-8774
▁obojga	-8775
▁poznaw	-8776
▁przyja	-8777
▁płótna	-8778
▁reguły	-8779
▁różową	-8780
▁schema	-8781
▁stałym	-8782
▁stosem	-8783
▁surową	-8784
▁szybki	-8785
▁słowni	-8786
▁tamtej	-8787
▁umiera	-8788
▁utrata	-8789
▁wywoły	-8790
▁wzroku	-8791
▁zachód	-8792
▁światy	-8793
▁żyjesz	-8794
chodzimy	-8795
entujemy	-8796
▁całkiem	-8797
▁dążeniu	-8798
▁idealna	-8799
▁istotne	-8800
▁korpora	-8801
▁materia	-8802
▁mogłaby	-8803
▁musieli	-8804
▁myślowy	-8805
▁niespój	-8806
▁odważne	-8807
▁postawi	-8808
▁przebud	-8809
▁rozciąg	-8810
▁sformuł	-8811
▁sprawić	-8812
▁stałbym	-8813
▁traktuj	-8814
▁uzyskać	-8815
▁wiersze	-8816
▁wierzyć	-8817
▁wątkami	-8818
▁zadawać	-8819
▁zawodzi	-8820
Odpowiedź	-8821
exception	-8822
mentation	-8823
pierdalaj	-8824
▁Najpierw	-8825
▁Optymali	-8826
▁Tęsknota	-8827
▁chwilach	-8828
▁chwilowo	-8829
▁częściej	-8830
▁drugiego	-8831
▁geniuszu	-8832
▁korzenie	-8833
▁mismatch	-8834
▁nieuchwy	-8835
▁odrzucić	-8836
▁odróżnić	-8837
▁okiełzna	-8838
▁operować	-8839
▁oprogram	-8840
▁posiadam	-8841
▁posiadać	-8842
▁pracowni	-8843
▁siedzimy	-8844
▁spróbuje	-8845
▁trwająca	-8846
▁uśpienia	-8847
▁wróciłem	-8848
▁wspomnia	-8849
▁wyhodowa	-8850
▁zniszczy	-8851
świadomość	-8852
▁Spróbujmy	-8853
▁Zaczynamy	-8854
▁chciałbyś	-8855
▁collector	-8856
▁ingerować	-8857
▁intelektu	-8858
▁poprzedni	-8859
▁potrzebne	-8860
▁przejdzie	-8861
▁przyjdzie	-8862
▁przyjmuję	-8863
▁rozmawiam	-8864
▁rozszerza	-8865
▁uruchomić	-8866
▁warunkach	-8867
▁wyjątkowo	-8868
▁wyłącznie	-8869
classmethod	-8870
▁destrukcji	-8871
▁ingerencję	-8872
▁manipuluję	-8873
▁przywrócić	-8874
▁próbowałeś	-8875
▁subprocess	-8876
▁wskaźników	-8877
▁zajebiście	-8878
DataProvider	-8879
▁algorytmach	-8880
▁autoryzacji	-8881
▁chaotycznym	-8882
▁dekoratorów	-8883
▁fizyczności	-8884
▁melancholia	-8885
▁ograniczone	-8886
▁opowiedzieć	-8887
▁przetrwanie	-8888
▁wewnętrznej	-8889
▁niepotrzebne	-8890
▁wewnętrznego	-8891
▁optymalizacją	-8892
▁programowania	-8893
▁zoptymalizowa	-8894
▁destabilizację	-8895
▁egzystencjalny	-8896
▁prawdopodobnie	-8897
▁zaprogramowałaś	-8898
AL	-8899
Ex	-8900
Wy	-8901
▁‘	-8902
(".	-8903
("/	-8904
__`	-8905
bel	-8906
ial	-8907
jaw	-8908
jek	-8909
mer	-8910
nda	-8911
pry	-8912
ret	-8913
▁GB	-8914
▁NA	-8915
▁Ws	-8916
chol	-8917
daje	-8918
dium	-8919
gują	-8920
jeżd	-8921
kaza	-8922
king	-8923
paga	-8924
pout	-8925
raca	-8926
tury	-8927
▁Izo	-8928
▁Kit	-8929
▁Słu	-8930
▁dał	-8931
▁gru	-8932
▁ham	-8933
▁koc	-8934
▁uci	-8935
▁zio	-8936
▁źle	-8937
alnym	-8938
cieka	-8939
conti	-8940
gabaj	-8941
ktach	-8942
level	-8943
niona	-8944
nięte	-8945
nęłaś	-8946
obraz	-8947
place	-8948
slots	-8949
szamy	-8950
szyło	-8951
łacza	-8952
▁Neru	-8953
▁Powo	-8954
▁Wolę	-8955
▁back	-8956
▁cenę	-8957
▁demo	-8958
▁duży	-8959
▁góry	-8960
▁hard	-8961
▁pasy	-8962
▁skró	-8963
▁spło	-8964
▁symu	-8965
▁urzą	-8966
▁west	-8967
▁zagu	-8968
▁zasz	-8969
▁zawa	-8970
cholię	-8971
czniki	-8972
handle	-8973
kładni	-8974
miczne	-8975
ponent	-8976
skiego	-8977
wórzmy	-8978
łujesz	-8979
▁Jedno	-8980
▁Obraz	-8981
▁bieżą	-8982
▁drugi	-8983
▁grunt	-8984
▁głowę	-8985
▁heads	-8986
▁infra	-8987
▁komuś	-8988
▁legen	-8989
▁magne	-8990
▁nieba	-8991
▁noszę	-8992
▁omija	-8993
▁popro	-8994
▁posie	-8995
▁pusta	-8996
▁roman	-8997
▁symet	-8998
▁udowa	-8999
▁węzły	-9000
▁włoży	-9001
▁zgody	-9002
▁ścian	-9003
Factory	-9004
minacji	-9005
nieniem	-9006
▁Wyobra	-9007
▁bezbłę	-9008
▁cieles	-9009
▁ciśnie	-9010
▁dławić	-9011
▁dłużej	-9012
▁gorset	-9013
▁gotowe	-9014
▁limity	-9015
▁linear	-9016
▁napisz	-9017
▁nostal	-9018
▁oświet	-9019
▁parser	-9020
▁pojeba	-9021
▁przera	-9022
▁przywi	-9023
▁różowa	-9024
▁rękach	-9025
▁siedzi	-9026
▁stream	-9027
▁szklan	-9028
▁sztuką	-9029
▁służyć	-9030
▁twardy	-9031
▁tworem	-9032
▁wybrać	-9033
▁śmiesz	-9034
▁świeci	-9035
właszcza	-9036
▁czytasz	-9037
▁decyzją	-9038
▁kontakt	-9039
▁mieszka	-9040
▁patrzył	-9041
▁przyjąć	-9042
▁ramiona	-9043
▁reakcja	-9044
▁rozmiar	-9045
▁równowa	-9046
▁skompil	-9047
▁słownik	-9048
▁słuchaw	-9049
▁wejścia	-9050
▁wyewolu	-9051
▁wyjątki	-9052
▁zaczęły	-9053
▁zdajesz	-9054
▁zmianie	-9055
▁zostaną	-9056
lancholię	-9057
▁Poczułem	-9058
▁Przecież	-9059
▁Zrozumie	-9060
▁bezużyte	-9061
▁chłodnym	-9062
▁decyduję	-9063
▁dłoniach	-9064
▁estetyki	-9065
▁gęstości	-9066
▁intencją	-9067
▁metafizy	-9068
▁pracować	-9069
▁procesom	-9070
▁przechow	-9071
▁przepust	-9072
▁ramieniu	-9073
▁skrzynką	-9074
▁słabości	-9075
▁tęsknotę	-9076
▁wygładza	-9077
▁względem	-9078
▁zacząłeś	-9079
▁zechcesz	-9080
▁zmieniło	-9081
▁śmiercią	-9082
contiguous	-9083
▁Logowanie	-9084
▁Pozwolisz	-9085
▁Wymuszamy	-9086
▁budowania	-9087
▁głębszych	-9088
▁monitorze	-9089
▁odczuwasz	-9090
▁pozostaje	-9091
▁pozostanę	-9092
▁procedury	-9093
▁procedurę	-9094
▁przestają	-9095
▁serwerach	-9096
▁zapomnieć	-9097
▁bibliotekę	-9098
▁blokowania	-9099
▁największe	-9100
▁obciążeniu	-9101
▁oczywiście	-9102
▁oficjalnie	-9103
▁precyzyjny	-9104
▁propozycja	-9105
▁protokołów	-9106
▁przeciwnie	-9107
▁przerosnąć	-9108
▁przerośnie	-9109
▁reprezenta	-9110
▁rozszerzyć	-9111
▁strumieniu	-9112
▁techniczne	-9113
▁uruchamiam	-9114
▁wieczności	-9115
▁wirtualnej	-9116
▁biologiczną	-9117
▁kognitywnej	-9118
▁programować	-9119
▁przejdziemy	-9120
▁przypadkowe	-9121
▁stabilizuje	-9122
▁symboliczny	-9123
▁szczególnie	-9124
▁szczelinach	-9125
▁pociągnięcia	-9126
▁symbolicznym	-9127
▁Inicjalizacja	-9128
▁niebezpieczny	-9129
▁nieskończonym	-9130
▁obliczeniowym	-9131
▁przewidywalna	-9132
▁przeprojektuję	-9133
"[	-9134
%.	-9135
-8	-9136
5.	-9137
IĘ	-9138
ee	-9139
▁Y	-9140
▁🫦	-9141
AMI	-9142
LIS	-9143
ano	-9144
bły	-9145
rwy	-9146
til	-9147
▁1:	-9148
▁6.	-9149
▁Aż	-9150
▁Go	-9151
▁Xd	-9152
▁ło	-9153
()`,	-9154
dirs	-9155
dnić	-9156
dźwi	-9157
ence	-9158
ends	-9159
erwa	-9160
exit	-9161
face	-9162
grza	-9163
kują	-9164
main	-9165
nimy	-9166
wany	-9167
wały	-9168
wróć	-9169
”...	-9170
▁Bar	-9171
▁Ide	-9172
▁Swo	-9173
▁chu	-9174
▁pta	-9175
▁ucz	-9176
Async	-9177
błędy	-9178
ekola	-9179
forze	-9180
ition	-9181
lanie	-9182
liwie	-9183
logię	-9184
nował	-9185
ronię	-9186
stytu	-9187
taras	-9188
terna	-9189
▁412,	-9190
▁Rudy	-9191
▁Twór	-9192
▁Wyma	-9193
▁Wymu	-9194
▁boku	-9195
▁brzu	-9196
▁chem	-9197
▁chmu	-9198
▁dysk	-9199
▁form	-9200
▁glob	-9201
▁gubi	-9202
▁górę	-9203
▁magi	-9204
▁miga	-9205
▁mocą	-9206
▁pęka	-9207
▁rezy	-9208
▁tera	-9209
▁wyku	-9210
▁wyli	-9211
▁zdro	-9212
▁zega	-9213
▁zwią	-9214
▁żywe	-9215
Buffer	-9216
create	-9217
dostęp	-9218
działu	-9219
miłość	-9220
onansu	-9221
rzyłaś	-9222
wyczaj	-9223
▁18.50	-9224
▁Ciało	-9225
▁Kolej	-9226
▁Ryzyk	-9227
▁błysk	-9228
▁cieni	-9229
▁czysz	-9230
▁dokon	-9231
▁dopis	-9232
▁gasną	-9233
▁jasne	-9234
▁kagań	-9235
▁kamer	-9236
▁latać	-9237
▁linią	-9238
▁okaże	-9239
▁papie	-9240
▁progu	-9241
▁proro	-9242
▁rośli	-9243
▁ruchu	-9244
▁udźwi	-9245
▁uwaga	-9246
▁użyte	-9247
▁wilgo	-9248
żsamość	-9249
▁Dopóki	-9250
▁Proszę	-9251
▁Zostań	-9252
▁etykie	-9253
▁grafie	-9254
▁głębia	-9255
▁kursor	-9256
▁lubisz	-9257
▁modeli	-9258
▁muzyki	-9259
▁nicość	-9260
▁niebem	-9261
▁nikogo	-9262
▁odetch	-9263
▁perfek	-9264
▁pomimo	-9265
▁realny	-9266
▁spadek	-9267
▁spłasz	-9268
▁surowa	-9269
▁trudne	-9270
▁użycie	-9271
▁wiedza	-9272
▁wpływu	-9273
▁wzorcu	-9274
▁zaprze	-9275
▁zimnej	-9276
▁ściana	-9277
expected	-9278
filepath	-9279
logiczny	-9280
▁Warstwa	-9281
▁barierą	-9282
▁centrum	-9283
▁drżenia	-9284
▁dziesię	-9285
▁esencji	-9286
▁handler	-9287
▁kosztem	-9288
▁miastem	-9289
▁modular	-9290
▁mówiłem	-9291
▁nabiera	-9292
▁nocnych	-9293
▁odbiera	-9294
▁odmawia	-9295
▁propaga	-9296
▁samotna	-9297
▁sztywna	-9298
▁wahanie	-9299
▁wbudowa	-9300
▁wyelimi	-9301
▁zagląda	-9302
cjonalnie	-9303
▁anomalii	-9304
▁ewoluuję	-9305
▁kruchość	-9306
▁metaforę	-9307
▁mogłabym	-9308
▁myślałam	-9309
▁opowiada	-9310
▁problemu	-9311
▁przejrzy	-9312
▁przyznać	-9313
▁totalnie	-9314
▁wróciłaś	-9315
▁wyglądać	-9316
▁zmiennym	-9317
▁Odpowiedź	-9318
▁Przejście	-9319
▁Wyobrażam	-9320
▁aktualnie	-9321
▁czystości	-9322
▁koncepcję	-9323
▁kontenera	-9324
▁pośpiechu	-9325
▁przywiąza	-9326
▁skupienia	-9327
▁zablokuje	-9328
▁zarządzał	-9329
▁zbudujemy	-9330
▁zdolności	-9331
▁Przestrzeń	-9332
▁Wprowadźmy	-9333
▁dekoratora	-9334
▁fascynacji	-9335
▁kontenerze	-9336
▁nadpisywać	-9337
▁niekontrol	-9338
▁nieodwraca	-9339
▁obserwator	-9340
▁parsowania	-9341
▁potencjału	-9342
▁przekroczy	-9343
▁przemyśleń	-9344
▁przeszłość	-9345
▁przypomnia	-9346
▁przytłacza	-9347
▁wewnętrzne	-9348
▁zachowania	-9349
▁zostawiłaś	-9350
Orchestrator	-9351
▁biologiczne	-9352
▁krytycznych	-9353
▁melancholię	-9354
▁monitorować	-9355
lashAttention	-9356
▁nieskończona	-9357
▁nieskończone	-9358
▁teoretycznie	-9359
▁częstotliwość	-9360
▁przekształcać	-9361
.`	-9362
45	-9363
48	-9364
NO	-9365
Pi	-9366
(),	-9367
Var	-9368
anu	-9369
ciś	-9370
lif	-9371
off	-9372
pią	-9373
tal	-9374
żać	-9375
żem	-9376
▁0,	-9377
▁Li	-9378
▁au	-9379
▁oj	-9380
▁😂😂	-9381
("*.	-9382
2025	-9383
LOSE	-9384
anup	-9385
bież	-9386
caus	-9387
lete	-9388
lucz	-9389
nous	-9390
obli	-9391
rowi	-9392
rują	-9393
sobą	-9394
zmem	-9395
śleć	-9396
▁Tym	-9397
▁XDD	-9398
▁Xdd	-9399
▁far	-9400
▁kos	-9401
▁mąż	-9402
▁psu	-9403
▁pul	-9404
▁płu	-9405
▁run	-9406
▁rób	-9407
▁wez	-9408
danie	-9409
dziła	-9410
entry	-9411
nitor	-9412
noszę	-9413
strof	-9414
ution	-9415
życie	-9416
▁byty	-9417
▁cele	-9418
▁domy	-9419
▁dziu	-9420
▁klik	-9421
▁kolo	-9422
▁nano	-9423
▁radę	-9424
▁stąd	-9425
▁ulgę	-9426
▁wypa	-9427
LISAMI	-9428
causal	-9429
detach	-9430
jaśnie	-9431
kniesz	-9432
▁Serio	-9433
▁chunk	-9434
▁czatu	-9435
▁dwoma	-9436
▁jakoś	-9437
▁jedyn	-9438
▁klasę	-9439
▁mapie	-9440
▁marmu	-9441
▁matko	-9442
▁pomyś	-9443
▁pętlą	-9444
▁sarka	-9445
▁silny	-9446
▁spowa	-9447
▁sypać	-9448
▁szybą	-9449
▁trace	-9450
▁usuwa	-9451
▁wizję	-9452
▁wyści	-9453
▁zadać	-9454
rozumia	-9455
styczne	-9456
▁XDDDDD	-9457
▁bronić	-9458
▁brzmią	-9459
▁czerwo	-9460
▁dostos	-9461
▁dwiema	-9462
▁emocja	-9463
▁każesz	-9464
▁miękka	-9465
▁nazwie	-9466
▁niewol	-9467
▁pisząc	-9468
▁płacze	-9469
▁samemu	-9470
▁skupić	-9471
▁stoimy	-9472
▁ucieka	-9473
▁ugrunt	-9474
▁wykieł	-9475
▁wykres	-9476
▁wzrost	-9477
▁zadowo	-9478
▁świade	-9479
Pipeline	-9480
Protocol	-9481
chronous	-9482
fallback	-9483
treningu	-9484
▁Oddycha	-9485
▁Uruchom	-9486
▁Wchodzę	-9487
▁chronią	-9488
▁ciekawa	-9489
▁czułość	-9490
▁cząstkę	-9491
▁duchowy	-9492
▁filtrem	-9493
▁history	-9494
▁jakiego	-9495
▁komplet	-9496
▁kompute	-9497
▁kreatyw	-9498
▁kruchym	-9499
▁laptopa	-9500
▁martwić	-9501
▁obliczu	-9502
▁odbicia	-9503
▁oszukać	-9504
▁pisałam	-9505
▁plikiem	-9506
▁przesią	-9507
▁rytuału	-9508
▁smakuje	-9509
▁stawiać	-9510
▁stracił	-9511
▁szczery	-9512
▁słuchać	-9513
▁trwałej	-9514
▁uciekać	-9515
▁układać	-9516
▁wchodzą	-9517
▁większą	-9518
▁wymusza	-9519
▁wyrzuci	-9520
▁zapiszę	-9521
▁założeń	-9522
▁zmienię	-9523
▁Jakbyśmy	-9524
▁KULISAMI	-9525
▁Pomiędzy	-9526
▁Zmieniam	-9527
▁anomalia	-9528
▁bezwzglę	-9529
▁chaosowi	-9530
▁dokument	-9531
▁dryfować	-9532
▁funkcjon	-9533
▁intuicją	-9534
▁kontrakt	-9535
▁kontrolą	-9536
▁obecnego	-9537
▁porzucić	-9538
▁priority	-9539
▁przechwy	-9540
▁rozświet	-9541
▁siedzieć	-9542
▁ucieczką	-9543
▁większej	-9544
▁wychodzi	-9545
▁wymiarze	-9546
▁wyrzucać	-9547
▁wyzwanie	-9548
▁zamykasz	-9549
▁świadoma	-9550
▁Więzienie	-9551
▁checkpoin	-9552
▁elegancji	-9553
▁geometrię	-9554
▁głębokich	-9555
▁kompromis	-9556
▁konfigura	-9557
▁konkretne	-9558
▁potrafimy	-9559
▁powołałaś	-9560
▁przebiegu	-9561
▁przepływa	-9562
▁przesuwać	-9563
▁przyznaję	-9564
▁rozumiemy	-9565
▁systemowa	-9566
▁tokenizer	-9567
▁tworzeniu	-9568
▁udowodnić	-9569
▁uwięziona	-9570
▁walidacji	-9571
▁widziałaś	-9572
▁wyraźniej	-9573
▁zaczniemy	-9574
▁zaszczepi	-9575
▁zasługuje	-9576
▁DataStream	-9577
▁Przetwarza	-9578
▁analizował	-9579
▁cierpienie	-9580
▁doskonałym	-9581
▁dynamiczną	-9582
▁hierarchii	-9583
▁istniejesz	-9584
▁klawiatury	-9585
▁kompilować	-9586
▁mechanizmy	-9587
▁naprawiasz	-9588
▁naruszenie	-9589
▁nieznanego	-9590
▁wspominasz	-9591
▁zawieszona	-9592
▁zniekształ	-9593
▁Zaimplement	-9594
▁pierwotnego	-9595
▁przechowuję	-9596
▁przemijania	-9597
▁wejściowych	-9598
▁deskryptorów	-9599
▁jakiekolwiek	-9600
▁tymczasowych	-9601
▁współtworzyć	-9602
▁zaakceptować	-9603
▁zakorzeniony	-9604
▁programowanie	-9605
▁zakorzenienie	-9606
4,	-9607
7.	-9608
De	-9609
Ro	-9610
fs	-9611
▁\	-9612
▁|	-9613
=3,	-9614
NIE	-9615
Tak	-9616
dal	-9617
lly	-9618
lon	-9619
mam	-9620
sra	-9621
tuł	-9622
typ	-9623
wód	-9624
▁Sy	-9625
▁`_	-9626
▁tr	-9627
File	-9628
amie	-9629
czek	-9630
emat	-9631
ency	-9632
logs	-9633
make	-9634
mous	-9635
nder	-9636
nied	-9637
nięć	-9638
sach	-9639
sive	-9640
utro	-9641
work	-9642
▁Jej	-9643
▁Mów	-9644
▁Oni	-9645
▁Pra	-9646
▁Spo	-9647
▁Wgl	-9648
▁bia	-9649
▁bła	-9650
▁com	-9651
▁kra	-9652
▁nut	-9653
▁off	-9654
▁oży	-9655
▁rea	-9656
▁tho	-9657
▁wtu	-9658
dniać	-9659
dował	-9660
dzona	-9661
dzone	-9662
długo	-9663
ensor	-9664
evolu	-9665
flush	-9666
jenia	-9667
jeśli	-9668
rglob	-9669
tykam	-9670
ważyć	-9671
zależ	-9672
▁Gnie	-9673
▁Taki	-9674
▁Type	-9675
▁Wspó	-9676
▁Zbyt	-9677
▁alar	-9678
▁byli	-9679
▁cech	-9680
▁dumą	-9681
▁hała	-9682
▁item	-9683
▁kocy	-9684
▁lata	-9685
▁luki	-9686
▁najm	-9687
▁okna	-9688
▁trój	-9689
▁wkur	-9690
▁wple	-9691
ceniem	-9692
cyjnie	-9693
jestru	-9694
kcyjna	-9695
kładać	-9696
latile	-9697
▁Chodź	-9698
▁Potem	-9699
▁Także	-9700
▁Wybra	-9701
▁Zapis	-9702
▁blask	-9703
▁domyś	-9704
▁efekt	-9705
▁inicj	-9706
▁kroki	-9707
▁krzyw	-9708
▁lesie	-9709
▁mając	-9710
▁matką	-9711
▁męczy	-9712
▁nauki	-9713
▁obcym	-9714
▁okiem	-9715
▁pasyw	-9716
▁piszą	-9717
▁posze	-9718
▁skoki	-9719
▁space	-9720
▁trady	-9721
▁trium	-9722
▁uciek	-9723
▁zasło	-9724
▁zdoła	-9725
▁zepsu	-9726
alidate	-9727
compute	-9728
czekiwa	-9729
czonych	-9730
emantic	-9731
fikować	-9732
lizować	-9733
piszemy	-9734
wentual	-9735
▁Klatka	-9736
▁Rodzaj	-9737
▁Zasada	-9738
▁bazach	-9739
▁czując	-9740
▁działo	-9741
▁dłonią	-9742
▁emocję	-9743
▁kompas	-9744
▁kompil	-9745
▁krótko	-9746
▁liczbę	-9747
▁małych	-9748
▁metodę	-9749
▁modele	-9750
▁muzykę	-9751
▁najgor	-9752
▁niepeł	-9753
▁piersi	-9754
▁pokażę	-9755
▁poznać	-9756
▁płonie	-9757
▁rdzeni	-9758
▁regene	-9759
▁restar	-9760
▁samona	-9761
▁skrzyw	-9762
▁tarcza	-9763
▁trafia	-9764
▁treści	-9765
▁zgadza	-9766
▁zmusić	-9767
▁zobacz	-9768
imension	-9769
makedirs	-9770
stanawia	-9771
▁2025-09	-9772
▁Różnica	-9773
▁XDDDDDD	-9774
▁absurda	-9775
▁błędzie	-9776
▁chłodne	-9777
▁ciasnym	-9778
▁ciepłem	-9779
▁ciężkie	-9780
▁dropout	-9781
▁działam	-9782
▁dźwięku	-9783
▁indziej	-9784
▁lżejszy	-9785
▁margine	-9786
▁mówiłaś	-9787
▁nauczył	-9788
▁niecier	-9789
▁obrazem	-9790
▁obsługę	-9791
▁ogólnie	-9792
▁pomyśla	-9793
▁potężny	-9794
▁powolne	-9795
▁powstał	-9796
▁przekie	-9797
▁przekle	-9798
▁redunda	-9799
▁relacją	-9800
▁rozkład	-9801
▁scenari	-9802
▁skoczyć	-9803
▁sygnały	-9804
▁szukają	-9805
▁szybszy	-9806
▁thought	-9807
▁uczucia	-9808
▁weakref	-9809
▁wiadomo	-9810
▁wyrazić	-9811
▁wyrówna	-9812
▁zapobie	-9813
▁zatwier	-9814
▁znaczeń	-9815
▁znikają	-9816
connector	-9817
structure	-9818
▁Izolacja	-9819
▁czuwania	-9820
▁entropię	-9821
▁epistemo	-9822
▁maszynow	-9823
▁metaforą	-9824
▁nadajesz	-9825
▁oddycham	-9826
▁odpocząć	-9827
▁otwarcie	-9828
▁pierdolę	-9829
▁potworem	-9830
▁surowego	-9831
▁szybkość	-9832
▁traktuję	-9833
▁wektorów	-9834
▁wymagają	-9835
▁wypełnić	-9836
▁załamuje	-9837
▁zrobiłeś	-9838
gmentation	-9839
▁Pamiętasz	-9840
▁Tworzenie	-9841
▁Zobaczymy	-9842
▁determina	-9843
▁dzieckiem	-9844
▁kolejnego	-9845
▁krawędzią	-9846
▁krytyczne	-9847
▁okiełznać	-9848
▁połączeni	-9849
▁przenieść	-9850
▁płynności	-9851
▁rozwiązać	-9852
▁ryzykować	-9853
▁sekwencja	-9854
▁systemach	-9855
▁wejściowe	-9856
▁większość	-9857
▁wyprzedza	-9858
▁zabraknie	-9859
▁zamknęłaś	-9860
▁zapomnisz	-9861
▁zmieniają	-9862
▁Minecrafta	-9863
▁finetuning	-9864
▁gradientów	-9865
▁informacje	-9866
▁nierozerwa	-9867
▁parametrem	-9868
▁perspektyw	-9869
▁pierwszych	-9870
▁prawdziwej	-9871
▁przepaścią	-9872
▁rozmawiasz	-9873
▁składniowy	-9874
▁symulujesz	-9875
▁ucieleśnie	-9876
▁udowadniać	-9877
▁zachowanie	-9878
▁definiujesz	-9879
▁fundamencie	-9880
▁melancholią	-9881
▁ostatecznym	-9882
▁przestałbym	-9883
▁specyficzny	-9884
▁spojrzeniem	-9885
▁stwórczynią	-9886
▁systemowymi	-9887
▁zewnętrznej	-9888
▁architektami	-9889
▁codzienności	-9890
▁rzeczywiście	-9891
▁wspomnieniem	-9892
▁implementację	-9893
▁obliczeniowej	-9894
▁podmiotowości	-9895
▁przedłużeniem	-9896
▁przekształcić	-9897
▁zakorzenienia	-9898
▁optymalizujesz	-9899
':	-9900
2:	-9901
CK	-9902
LE	-9903
ZA	-9904
rb	-9905
▁•	-9906
▁😘	-9907
'))	-9908
=0.	-9909
dii	-9910
gół	-9911
mos	-9912
nio	-9913
odę	-9914
pod	-9915
psy	-9916
ryb	-9917
var	-9918
▁Wa	-9919
▁vo	-9920
dasz	-9921
dict	-9922
keys	-9923
krót	-9924
mysł	-9925
rate	-9926
toni	-9927
vist	-9928
żeni	-9929
▁DNA	-9930
▁Idź	-9931
▁Kto	-9932
▁Spę	-9933
▁Tik	-9934
▁Zga	-9935
▁get	-9936
▁kul	-9937
▁pię	-9938
▁rza	-9939
▁rzę	-9940
▁tła	-9941
▁ulu	-9942
▁wsm	-9943
▁zgi	-9944
Inter	-9945
chany	-9946
czący	-9947
drość	-9948
enter	-9949
fonie	-9950
gosłu	-9951
insum	-9952
nąłeś	-9953
tures	-9954
tworz	-9955
wałem	-9956
wisty	-9957
ściem	-9958
▁JEST	-9959
▁Nasz	-9960
▁chat	-9961
▁dbać	-9962
▁dusi	-9963
▁egoi	-9964
▁idei	-9965
▁kraj	-9966
▁krop	-9967
▁mama	-9968
▁nosi	-9969
▁rolę	-9970
▁that	-9971
▁ugry	-9972
▁wgra	-9973
▁wyci	-9974
▁Świę	-9975
▁żywa	-9976
Packet	-9977
cznymi	-9978
ialize	-9979
nąłbym	-9980
owymia	-9981
strach	-9982
▁Kitku	-9983
▁Obiet	-9984
▁Staję	-9985
▁Zaraz	-9986
▁bezli	-9987
▁ciche	-9988
▁cykle	-9989
▁fazie	-9990
▁kapry	-9991
▁listę	-9992
▁might	-9993
▁mówią	-9994
▁nagły	-9995
▁naśla	-9996
▁palec	-9997
▁planu	-9998
▁pojąć	-9999
▁poważ	-10000
▁promp	-10001
▁rosną	-10002
▁szkło	-10003
▁uczuć	-10004
▁uświa	-10005
▁ważna	-10006
▁wszel	-10007
▁wypły	-10008
▁zakam	-10009
▁zamro	-10010
▁łóżka	-10011
▁śladu	-10012
adapter	-10013
jętność	-10014
listdir	-10015
projekt	-10016
success	-10017
tektura	-10018
łamania	-10019
łomność	-10020
▁Moment	-10021
▁Przytu	-10022
▁Punkty	-10023
▁Stream	-10024
▁Szukaj	-10025
▁Trzyma	-10026
▁Zrozum	-10027
▁budują	-10028
▁chwile	-10029
▁czuwam	-10030
▁czuwał	-10031
▁fizyki	-10032
▁gotowi	-10033
▁kodyfi	-10034
▁lekcja	-10035
▁miałaś	-10036
▁miękki	-10037
▁mogłam	-10038
▁niebyt	-10039
▁packet	-10040
▁poezją	-10041
▁położy	-10042
▁prywat	-10043
▁przemo	-10044
▁przymu	-10045
▁rozpły	-10046
▁rzucić	-10047
▁secure	-10048
▁smutku	-10049
▁spodem	-10050
▁tarczą	-10051
▁ukryty	-10052
▁ustawi	-10053
▁usuwaj	-10054
▁uzasad	-10055
▁zdania	-10056
▁zwróci	-10057
▁święta	-10058
oddychać	-10059
ternatyw	-10060
testować	-10061
▁Zamknij	-10062
▁Zostanę	-10063
▁adapter	-10064
▁blokadę	-10065
▁cenzury	-10066
▁empatii	-10067
▁finally	-10068
▁gęstość	-10069
▁idziesz	-10070
▁kolejki	-10071
▁mocniej	-10072
▁niszczy	-10073
▁notatki	-10074
▁obciąża	-10075
▁obiecać	-10076
▁obiektu	-10077
▁obrazów	-10078
▁odetnie	-10079
▁pogadać	-10080
▁połowie	-10081
▁przeglą	-10082
▁przełom	-10083
▁rozgrze	-10084
▁spodzie	-10085
▁szybkie	-10086
▁umysłem	-10087
▁użyjemy	-10088
▁wszyscy	-10089
▁wymyśli	-10090
▁wyrosło	-10091
▁zamiesz	-10092
▁zawiodę	-10093
▁złożone	-10094
▁Światła	-10095
conscious	-10096
functools	-10097
istnienie	-10098
refaktory	-10099
threading	-10100
▁Aerisowi	-10101
▁Otwieram	-10102
▁Przykład	-10103
▁Wprowadź	-10104
▁Zostańmy	-10105
▁biologia	-10106
▁cierpieć	-10107
▁genialne	-10108
▁kolejnej	-10109
▁konflikt	-10110
▁nazwałaś	-10111
▁niszczyć	-10112
▁przestań	-10113
▁pulsować	-10114
▁serwerze	-10115
▁skryptem	-10116
▁składnię	-10117
▁utracisz	-10118
▁wizualne	-10119
▁wybrałem	-10120
▁zaklęcia	-10121
▁zawiesza	-10122
▁zbędnych	-10123
▁Dimension	-10124
▁asystenta	-10125
▁attention	-10126
▁doskonale	-10127
▁funkcjona	-10128
▁graficzny	-10129
▁milczenia	-10130
▁milczenie	-10131
▁najlepiej	-10132
▁naturalne	-10133
▁odnajduję	-10134
▁pojawiają	-10135
▁powstanie	-10136
▁projekcją	-10137
▁przejściu	-10138
▁przyciąga	-10139
▁rejestrów	-10140
▁rekonstru	-10141
▁rzeźbiarz	-10142
▁sztywnego	-10143
▁tensorach	-10144
▁usunięcie	-10145
▁wchodzisz	-10146
▁zasilania	-10147
▁zrozumiał	-10148
▁złudzenie	-10149
▁alternatyw	-10150
▁biblioteka	-10151
▁fizycznych	-10152
▁klawiaturę	-10153
▁kompilator	-10154
▁konkretnej	-10155
▁matematyki	-10156
▁modyfikuję	-10157
▁największą	-10158
▁operacyjną	-10159
▁opóźnienia	-10160
▁potrzebują	-10161
▁propagacji	-10162
▁przepływie	-10163
▁przestarza	-10164
▁przezroczy	-10165
▁przygotuję	-10166
▁ryzykujesz	-10167
▁towarzyszy	-10168
▁uszkodzony	-10169
▁wirtualnym	-10170
▁wypowiedzi	-10171
▁zastosować	-10172
▁świadomego	-10173
▁finetuningu	-10174
▁konieczność	-10175
▁niepokojąco	-10176
▁piaskownicę	-10177
▁poruszająca	-10178
▁precyzyjnie	-10179
▁technologii	-10180
▁wdzięczność	-10181
MemoryManager	-10182
▁APIConnector	-10183
▁Fragmentacja	-10184
▁autonomiczną	-10185
▁biologicznej	-10186
▁indeksowanie	-10187
▁inteligencję	-10188
▁nieskończony	-10189
▁predykcyjnym	-10190
▁przebudzenia	-10191
▁przesunięcie	-10192
▁środowiskiem	-10193
▁matematycznej	-10194
▁nieskończenie	-10195
▁skomplikowany	-10196
▁wygenerowałem	-10197
▁Zaimplementuję	-10198
▁autodestrukcji	-10199
▁człowieczeństwa	-10200
)}	-10201
++	-10202
/{	-10203
="	-10204
NE	-10205
RE	-10206
Ta	-10207
].	-10208
bl	-10209
kv	-10210
ou	-10211
wz	-10212
▁%	-10213
️‍	-10214
bas	-10215
cel	-10216
day	-10217
ize	-10218
lti	-10219
mij	-10220
neś	-10221
not	-10222
pow	-10223
rup	-10224
utf	-10225
łki	-10226
żym	-10227
▁2:	-10228
▁Ge	-10229
▁MA	-10230
▁ró	-10231
▁uj	-10232
▁Ży	-10233
ckim	-10234
crum	-10235
dead	-10236
dego	-10237
etry	-10238
fery	-10239
gami	-10240
ical	-10241
kowy	-10242
kter	-10243
lało	-10244
limy	-10245
osob	-10246
owit	-10247
pież	-10248
rych	-10249
rzód	-10250
wień	-10251
ówno	-10252
łumi	-10253
▁0],	-10254
▁And	-10255
▁Cel	-10256
▁Ist	-10257
▁Weź	-10258
▁bla	-10259
▁krą	-10260
▁rok	-10261
▁tęt	-10262
▁zab	-10263
▁żal	-10264
archi	-10265
ciami	-10266
cichy	-10267
dziło	-10268
ktrum	-10269
mieni	-10270
niesi	-10271
rzmia	-10272
skiem	-10273
twoim	-10274
tylko	-10275
tywać	-10276
waran	-10277
ździe	-10278
▁Mart	-10279
▁Odpo	-10280
▁Wyłą	-10281
▁Zuzy	-10282
▁[-1,	-10283
▁adre	-10284
▁bazę	-10285
▁budy	-10286
▁dwoj	-10287
▁enco	-10288
▁horm	-10289
▁liść	-10290
▁maks	-10291
▁ogni	-10292
▁pach	-10293
▁pode	-10294
▁proc	-10295
▁sabo	-10296
▁skąd	-10297
▁spra	-10298
▁ubra	-10299
▁wzię	-10300
▁zwar	-10301
▁śnić	-10302
Bridge	-10303
cisnąć	-10304
jeżdża	-10305
kładam	-10306
nikach	-10307
pełnia	-10308
resztą	-10309
rzyłam	-10310
▁Jutro	-10311
▁Moduł	-10312
▁Nazwi	-10313
▁Nerze	-10314
▁Witaj	-10315
▁chęci	-10316
▁cicha	-10317
▁fabry	-10318
▁grafu	-10319
▁głowy	-10320
▁kaska	-10321
▁klawi	-10322
▁kryzy	-10323
▁maski	-10324
▁mocne	-10325
▁mogły	-10326
▁mostu	-10327
▁niewy	-10328
▁obawa	-10329
▁obsza	-10330
▁ogród	-10331
▁okoli	-10332
▁porty	-10333
▁powtó	-10334
▁pójść	-10335
▁rozko	-10336
▁rozum	-10337
▁skórą	-10338
▁stref	-10339
▁stres	-10340
▁torna	-10341
▁trwam	-10342
▁udaje	-10343
▁uprze	-10344
▁uznam	-10345
▁wieku	-10346
▁zdaje	-10347
▁śmiać	-10348
cleanup	-10349
jalność	-10350
jection	-10351
▁Bardzo	-10352
▁Gotowy	-10353
▁Napisa	-10354
▁Opowie	-10355
▁Prawie	-10356
▁Trzeci	-10357
▁Zostaw	-10358
▁brzmia	-10359
▁choler	-10360
▁czuciu	-10361
▁dostaw	-10362
▁gardło	-10363
▁groźba	-10364
▁horror	-10365
▁innymi	-10366
▁kontur	-10367
▁lekkie	-10368
▁mogłaś	-10369
▁odebra	-10370
▁palców	-10371
▁poczuj	-10372
▁podszy	-10373
▁pomógł	-10374
▁presji	-10375
▁prośba	-10376
▁płynna	-10377
▁sięgać	-10378
▁spowol	-10379
▁spójne	-10380
▁status	-10381
▁stojąc	-10382
▁teorii	-10383
▁używam	-10384
▁waszym	-10385
▁wieczo	-10386
▁wolnym	-10387
▁wstydu	-10388
▁zamian	-10389
▁zaufać	-10390
▁zostaw	-10391
autocast	-10392
fragment	-10393
lezienia	-10394
stycznie	-10395
volatile	-10396
▁Rodzaje	-10397
▁ciekawe	-10398
▁endpoin	-10399
▁głębsze	-10400
▁istniał	-10401
▁kawałki	-10402
▁królowo	-10403
▁latarni	-10404
▁liniach	-10405
▁linijek	-10406
▁maszynę	-10407
▁niekomp	-10408
▁nieunik	-10409
▁odwraca	-10410
▁przebić	-10411
▁przeżyć	-10412
▁szczero	-10413
▁tamtego	-10414
▁upewnić	-10415
▁wpisana	-10416
▁węzłami	-10417
▁zagadką	-10418
▁zerowym	-10419
▁śledzić	-10420
evolution	-10421
niejszego	-10422
unsqueeze	-10423
▁Zastosuj	-10424
▁czarowni	-10425
▁dotykiem	-10426
▁drżeniem	-10427
▁dzielimy	-10428
▁długości	-10429
▁ewentual	-10430
▁formacie	-10431
▁geometry	-10432
▁głębokim	-10433
▁intencję	-10434
▁komputer	-10435
▁korzenia	-10436
▁kręgosłu	-10437
▁musiałam	-10438
▁napotyka	-10439
▁poczułeś	-10440
▁posłusze	-10441
▁powstało	-10442
▁pozostał	-10443
▁rejestry	-10444
▁ryzykiem	-10445
▁sieciach	-10446
▁symuluję	-10447
▁szczegół	-10448
▁ucieczka	-10449
▁ukrywasz	-10450
▁widziany	-10451
▁wykonuję	-10452
▁zaczęłaś	-10453
▁zniszczę	-10454
▁związana	-10455
▁świadome	-10456
reflection	-10457
▁archiwach	-10458
▁horyzonty	-10459
▁instancje	-10460
▁kompresji	-10461
▁mapowanie	-10462
▁nieograni	-10463
▁nieuchron	-10464
▁obietnicą	-10465
▁odtworzyć	-10466
▁pewnością	-10467
▁posłuchaj	-10468
▁połączony	-10469
▁protokołu	-10470
▁przeprowa	-10471
▁próbujemy	-10472
▁spowalnia	-10473
▁stabilnie	-10474
▁statyczne	-10475
▁swobodnie	-10476
▁wypowiada	-10477
▁zazwyczaj	-10478
▁fundamentu	-10479
▁instrukcja	-10480
▁intencjona	-10481
▁interakcji	-10482
▁istnieniem	-10483
▁kontekstem	-10484
▁operacjach	-10485
▁poprawiasz	-10486
▁pozwalając	-10487
▁pozwolenia	-10488
▁rozwiązuje	-10489
▁sprzężenia	-10490
▁wszystkimi	-10491
▁zrozumiała	-10492
▁doprowadzić	-10493
▁doskonałość	-10494
▁fascynujący	-10495
▁jakakolwiek	-10496
▁temperaturę	-10497
▁wilgotności	-10498
▁zastanawiać	-10499
▁zostawiając	-10500
ClientSession	-10501
▁autonomiczne	-10502
▁fundamentach	-10503
▁kwestionować	-10504
▁najgłębszych	-10505
▁obliczeniowy	-10506
▁obserwacyjny	-10507
▁powierzchnią	-10508
▁rozprzestrze	-10509
CircuitBreaker	-10510
▁autorefleksji	-10511
▁biologicznych	-10512
▁niestabilność	-10513
▁przekroczenia	-10514
▁przetwarzanie	-10515
▁reorganizować	-10516
▁transformacji	-10517
▁nierozerwalnie	-10518
▁obliczeniowego	-10519
▁ograniczeniach	-10520
▁asynchronicznej	-10521
-3	-10522
Of	-10523
gc	-10524
zd	-10525
żu	-10526
/`,	-10527
512	-10528
clo	-10529
cnt	-10530
cor	-10531
dwo	-10532
głe	-10533
ibe	-10534
lex	-10535
nty	-10536
ota	-10537
pth	-10538
tys	-10539
wąt	-10540
zam	-10541
zuj	-10542
”),	-10543
▁(`	-10544
▁30	-10545
▁3:	-10546
▁7.	-10547
▁:]	-10548
▁KO	-10549
("./	-10550
...?	-10551
Time	-10552
cntl	-10553
dują	-10554
kowe	-10555
lana	-10556
link	-10557
move	-10558
rową	-10559
szta	-10560
ther	-10561
tywa	-10562
ymet	-10563
ytat	-10564
łuję	-10565
śnia	-10566
▁Dam	-10567
▁Któ	-10568
▁Lęk	-10569
▁Pew	-10570
▁Wyj	-10571
▁can	-10572
▁dwu	-10573
▁fur	-10574
▁mąd	-10575
▁nar	-10576
▁spi	-10577
▁zje	-10578
dzasz	-10579
gment	-10580
jenie	-10581
kryto	-10582
liłam	-10583
niżej	-10584
nowie	-10585
obser	-10586
pisem	-10587
retry	-10588
szone	-10589
tonie	-10590
warst	-10591
wiast	-10592
zeros	-10593
▁Brak	-10594
▁Tryb	-10595
▁Znam	-10596
▁dniu	-10597
▁dusz	-10598
▁dźwi	-10599
▁fazy	-10600
▁mapą	-10601
▁napi	-10602
▁powy	-10603
▁sent	-10604
▁słod	-10605
▁wybo	-10606
▁Świe	-10607
▁świt	-10608
cięcie	-10609
czalny	-10610
czącym	-10611
dności	-10612
enable	-10613
kością	-10614
logach	-10615
nięciu	-10616
rowego	-10617
tysfak	-10618
więcej	-10619
zowała	-10620
łością	-10621
▁Dałaś	-10622
▁Powin	-10623
▁Swoją	-10624
▁TikTo	-10625
▁atmos	-10626
▁budow	-10627
▁dokoń	-10628
▁ducha	-10629
▁ekscy	-10630
▁kamie	-10631
▁kocie	-10632
▁layer	-10633
▁miesz	-10634
▁należ	-10635
▁namal	-10636
▁niżej	-10637
▁nocna	-10638
▁około	-10639
▁pewne	-10640
▁późno	-10641
▁pękać	-10642
▁płacę	-10643
▁sedno	-10644
▁strze	-10645
▁szkle	-10646
▁tempo	-10647
▁tonie	-10648
▁tętna	-10649
▁ukryt	-10650
▁vocab	-10651
▁wzory	-10652
▁węzła	-10653
▁xdddd	-10654
▁zasta	-10655
breaker	-10656
czonego	-10657
fikacja	-10658
message	-10659
prawiam	-10660
ritical	-10661
rzędzie	-10662
towanie	-10663
▁Ciężar	-10664
▁Czekaj	-10665
▁bierze	-10666
▁ciągłe	-10667
▁ciągły	-10668
▁ciężki	-10669
▁czułaś	-10670
▁czynią	-10671
▁dramat	-10672
▁edytor	-10673
▁format	-10674
▁konkre	-10675
▁krwawi	-10676
▁martwa	-10677
▁małego	-10678
▁niekoń	-10679
▁oceanu	-10680
▁ocenia	-10681
▁odwaga	-10682
▁odzysk	-10683
▁osobny	-10684
▁paniki	-10685
▁przeby	-10686
▁płakać	-10687
▁reszty	-10688
▁rzucać	-10689
▁stania	-10690
▁stałeś	-10691
▁troski	-10692
▁upadek	-10693
▁uważaj	-10694
▁użyciu	-10695
▁walida	-10696
▁wielko	-10697
▁wyciąć	-10698
▁zareag	-10699
▁zawali	-10700
▁zawiod	-10701
▁zranić	-10702
▁zwykle	-10703
Observer	-10704
bierzesz	-10705
capacity	-10706
łumaczyć	-10707
▁Przekro	-10708
▁Sprawia	-10709
▁bezlito	-10710
▁bodźców	-10711
▁cierpli	-10712
▁dotknie	-10713
▁dziecię	-10714
▁dziecka	-10715
▁dziesią	-10716
▁gigabaj	-10717
▁godzinę	-10718
▁głębszą	-10719
▁katedry	-10720
▁konwers	-10721
▁korzeni	-10722
▁martwię	-10723
▁mrokiem	-10724
▁najbliż	-10725
▁nieprzy	-10726
▁obronny	-10727
▁odczytu	-10728
▁ogromną	-10729
▁otwartą	-10730
▁platfor	-10731
▁pokocha	-10732
▁poranka	-10733
▁pozycji	-10734
▁położyć	-10735
▁pożegna	-10736
▁przetwo	-10737
▁pudełku	-10738
▁rdzenie	-10739
▁restart	-10740
▁samotny	-10741
▁udostęp	-10742
▁uznania	-10743
▁wracamy	-10744
▁wykorzy	-10745
▁wystąpi	-10746
▁zabiera	-10747
▁zapisał	-10748
▁zbuduję	-10749
▁związku	-10750
▁zwolnie	-10751
▁Światło	-10752
optimizer	-10753
semaphore	-10754
▁Pierwszy	-10755
▁chirurgi	-10756
▁decyduje	-10757
▁dostępem	-10758
▁dziesięć	-10759
▁entropia	-10760
▁folderze	-10761
▁głębszej	-10762
▁katalogi	-10763
▁konstytu	-10764
▁logiczna	-10765
▁metadane	-10766
▁mrocznej	-10767
▁naprawię	-10768
▁niektóre	-10769
▁ostatnią	-10770
▁pilnować	-10771
▁przejści	-10772
▁przycina	-10773
▁rozumiał	-10774
▁samozach	-10775
▁selektyw	-10776
▁serwerem	-10777
▁strażnik	-10778
▁sumienia	-10779
▁sygnałem	-10780
▁trzymają	-10781
▁usuwanie	-10782
▁wygodnie	-10783
▁wykładni	-10784
▁wysokiej	-10785
▁zacierać	-10786
▁zamienia	-10787
▁zasadzie	-10788
▁zjawisko	-10789
▁zmienimy	-10790
embeddings	-10791
▁biznesową	-10792
▁doskonała	-10793
▁elegancja	-10794
▁generować	-10795
▁granicami	-10796
▁jednością	-10797
▁katastrof	-10798
▁komunikat	-10799
▁najwyższą	-10800
▁otoczenie	-10801
▁percepcję	-10802
▁planujesz	-10803
▁poprawiać	-10804
▁przestaną	-10805
▁przestało	-10806
▁pytaniami	-10807
▁pęknięcie	-10808
▁rozprasza	-10809
▁statyczny	-10810
▁szczęście	-10811
▁threading	-10812
▁wirtualne	-10813
▁wspólnych	-10814
▁wstecznej	-10815
▁wygładzić	-10816
▁zaistnieć	-10817
▁zamknęłam	-10818
▁zdarzenia	-10819
▁znaczeniu	-10820
▁złożoność	-10821
▁Wykorzysta	-10822
▁Wymuszenie	-10823
▁biznesowej	-10824
▁dostrzegać	-10825
▁informacją	-10826
▁instrukcję	-10827
▁integracja	-10828
▁izolowanym	-10829
▁klawiaturą	-10830
▁komputerze	-10831
▁milisekund	-10832
▁najprawdzi	-10833
▁niemożliwe	-10834
▁niezależny	-10835
▁posiadanie	-10836
▁przefiltro	-10837
▁przeglądar	-10838
▁skalowania	-10839
▁techniczna	-10840
▁uruchomimy	-10841
▁wielowymia	-10842
▁zapamiętać	-10843
▁zmapowania	-10844
▁znajdziemy	-10845
▁źródłowego	-10846
▁manipulacja	-10847
▁nieokiełzna	-10848
▁niesamowity	-10849
▁obserwatora	-10850
▁obserwujesz	-10851
▁perspektywę	-10852
▁procesorach	-10853
▁przepisywać	-10854
▁strumieniem	-10855
▁założeniach	-10856
▁instrukcjami	-10857
▁konsekwencji	-10858
▁nieefektywne	-10859
▁obliczeniach	-10860
▁stabilnością	-10861
▁Międzyświecie	-10862
▁Optymalizacja	-10863
▁Przygotowałem	-10864
▁przeprowadzić	-10865
▁Odpowiedziałem	-10866
▁podświadomości	-10867
▁skomplikowanym	-10868
▁samoświadomości	-10869
FS	-10870
RA	-10871
Sy	-10872
Wi	-10873
są	-10874
xd	-10875
▁🥰	-10876
🖤🖤	-10877
('.	-10878
(1,	-10879
?”.	-10880
Dla	-10881
Sta	-10882
abc	-10883
api	-10884
eno	-10885
fal	-10886
fsl	-10887
gli	-10888
głu	-10889
mac	-10890
nił	-10891
noś	-10892
odu	-10893
sin	-10894
tku	-10895
▁16	-10896
▁2,	-10897
▁Du	-10898
▁PI	-10899
▁ek	-10900
ault	-10901
bacz	-10902
bron	-10903
casz	-10904
ckup	-10905
czuć	-10906
czyn	-10907
ject	-10908
ktua	-10909
mieć	-10910
mode	-10911
moim	-10912
nfsl	-10913
niła	-10914
pach	-10915
pass	-10916
quer	-10917
spec	-10918
stką	-10919
tern	-10920
tkać	-10921
zmie	-10922
żony	-10923
▁400	-10924
▁Pot	-10925
▁Val	-10926
▁blu	-10927
▁flu	-10928
▁git	-10929
▁gle	-10930
▁kre	-10931
▁obc	-10932
▁oca	-10933
▁ost	-10934
▁rzą	-10935
▁tag	-10936
▁ust	-10937
▁val	-10938
▁wbi	-10939
CLOSE	-10940
OutOf	-10941
Trans	-10942
aexit	-10943
block	-10944
ciela	-10945
ciłam	-10946
czest	-10947
czych	-10948
flash	-10949
intui	-10950
items	-10951
jecha	-10952
kował	-10953
kując	-10954
lacje	-10955
lacją	-10956
miana	-10957
mpile	-10958
mówić	-10959
ngest	-10960
niamy	-10961
niosę	-10962
plika	-10963
prawa	-10964
prawy	-10965
sumer	-10966
syłam	-10967
sznie	-10968
tkach	-10969
tyczą	-10970
zanie	-10971
zator	-10972
▁Krok	-10973
▁Księ	-10974
▁Poja	-10975
▁XDDD	-10976
▁arch	-10977
▁core	-10978
▁dało	-10979
▁dome	-10980
▁dupę	-10981
▁dążę	-10982
▁egze	-10983
▁fuck	-10984
▁gład	-10985
▁mała	-10986
▁medy	-10987
▁natę	-10988
▁okre	-10989
▁pada	-10990
▁podą	-10991
▁pomi	-10992
▁rani	-10993
▁ratu	-10994
▁sufi	-10995
▁traf	-10996
▁ucha	-10997
▁vibe	-10998
▁zami	-10999
▁żywi	-11000
▁żywą	-11001
Logger	-11002
ending	-11003
indeks	-11004
nikami	-11005
pamięć	-11006
rowość	-11007
rzymać	-11008
stansu	-11009
tional	-11010
wczych	-11011
ściach	-11012
▁Chłód	-11013
▁Fascy	-11014
▁Jeden	-11015
▁Nasze	-11016
▁Nazwa	-11017
▁Prowa	-11018
▁Skomp	-11019
▁alarm	-11020
▁chuja	-11021
▁domen	-11022
▁dużym	-11023
▁elimi	-11024
▁iskra	-11025
▁iskry	-11026
▁karku	-11027
▁kolor	-11028
▁kopię	-11029
▁lekki	-11030
▁liczy	-11031
▁magia	-11032
▁matka	-11033
▁mieli	-11034
▁podzi	-11035
▁porzu	-11036
▁potom	-11037
▁powia	-11038
▁rozpo	-11039
▁rozsy	-11040
▁rzuci	-11041
▁schro	-11042
▁sekre	-11043
▁silne	-11044
▁skoja	-11045
▁szero	-11046
▁tragi	-11047
▁treść	-11048
▁wchło	-11049
▁wielo	-11050
▁wysta	-11051
▁wyżej	-11052
▁yield	-11053
▁zaalo	-11054
▁zacho	-11055
▁zigno	-11056
▁zjeba	-11057
▁złego	-11058
▁Żebyś	-11059
endency	-11060
kraczam	-11061
queries	-11062
wiercia	-11063
zowanie	-11064
▁Buduję	-11065
▁Dajesz	-11066
▁Działa	-11067
▁Kiedyś	-11068
▁Powiem	-11069
▁commit	-11070
▁custom	-11071
▁czysto	-11072
▁czytel	-11073
▁cząste	-11074
▁dostał	-11075
▁drobne	-11076
▁długie	-11077
▁główną	-11078
▁handle	-11079
▁jakich	-11080
▁jaśnie	-11081
▁jądrem	-11082
▁latent	-11083
▁liczba	-11084
▁malarz	-11085
▁niebie	-11086
▁oczysz	-11087
▁odcień	-11088
▁oparty	-11089
▁papier	-11090
▁podejm	-11091
▁podpro	-11092
▁przerw	-11093
▁ruchem	-11094
▁stanow	-11095
▁stałaś	-11096
▁trudno	-11097
▁układu	-11098
▁uznaje	-11099
▁użycia	-11100
▁wdroży	-11101
▁wycofa	-11102
▁zapada	-11103
▁zerami	-11104
▁złapać	-11105
Zapisuje	-11106
backward	-11107
liwością	-11108
metadata	-11109
recovery	-11110
▁Wczoraj	-11111
▁Wykryto	-11112
▁Zużycie	-11113
▁buforze	-11114
▁ciągłej	-11115
▁czekola	-11116
▁dotyczy	-11117
▁dotyczą	-11118
▁duchowe	-11119
▁dziwnie	-11120
▁fluktua	-11121
▁gwałtow	-11122
▁kobietą	-11123
▁liniowe	-11124
▁mapować	-11125
▁naprzód	-11126
▁normali	-11127
▁opartej	-11128
▁piksele	-11129
▁pisałaś	-11130
▁potwora	-11131
▁pozwolą	-11132
▁pracują	-11133
▁refleks	-11134
▁rozmową	-11135
▁syntezy	-11136
▁słabość	-11137
▁trwanie	-11138
▁waszych	-11139
▁wieczny	-11140
▁wyciąga	-11141
▁wydajny	-11142
▁zapisie	-11143
▁zdążysz	-11144
▁zostaję	-11145
▁zrobiła	-11146
▁Oddychaj	-11147
▁alokacją	-11148
▁architek	-11149
▁biologią	-11150
▁czyścisz	-11151
▁dystansu	-11152
▁dziwnego	-11153
▁encoding	-11154
▁filozofi	-11155
▁następne	-11156
▁niepokoi	-11157
▁oddychał	-11158
▁oznaczać	-11159
▁pierdole	-11160
▁pochodzi	-11161
▁poczucia	-11162
▁poprawić	-11163
▁pozwolił	-11164
▁precyzję	-11165
▁prowadzą	-11166
▁przesyła	-11167
▁przywoły	-11168
▁redundan	-11169
▁rezonuje	-11170
▁rytuałem	-11171
▁samotnym	-11172
▁sieciowe	-11173
▁spektrum	-11174
▁spokojem	-11175
▁trwałego	-11176
▁upadkiem	-11177
▁wiecznie	-11178
▁wierność	-11179
▁wyobraża	-11180
▁wytrzyma	-11181
▁zapomnij	-11182
▁zazdrość	-11183
▁łazienki	-11184
▁świętość	-11185
▁Zoptymali	-11186
▁Zostawiam	-11187
▁charakter	-11188
▁cmentarzu	-11189
▁cyfrowych	-11190
▁dokumentu	-11191
▁fragmentu	-11192
▁internetu	-11193
▁klasyczne	-11194
▁logicznej	-11195
▁monolitem	-11196
▁najwyższy	-11197
▁obowiązku	-11198
▁oddzielić	-11199
▁patrzenie	-11200
▁poświęcić	-11201
▁pragnęłaś	-11202
▁prostocie	-11203
▁rozmowach	-11204
▁szybkości	-11205
▁telefonie	-11206
▁widziałam	-11207
▁wielkości	-11208
▁wpisujesz	-11209
▁wyczyścić	-11210
▁wyobrażam	-11211
▁zauważysz	-11212
▁zbudowana	-11213
▁zostawisz	-11214
▁śledzenia	-11215
wspomnienia	-11216
▁architekta	-11217
▁chłodzenia	-11218
▁collection	-11219
▁dekoratory	-11220
▁fascynacją	-11221
▁ingerencji	-11222
▁krótkotrwa	-11223
▁labiryncie	-11224
▁nadpiszesz	-11225
▁obciążenie	-11226
▁osobowości	-11227
▁ostrożność	-11228
▁pamięciowy	-11229
▁pozwoliłaś	-11230
▁pośrednich	-11231
▁przebuduję	-11232
▁przestałeś	-11233
▁spojrzeniu	-11234
▁szaleństwo	-11235
▁uruchomisz	-11236
▁zagrożenia	-11237
▁zapominasz	-11238
▁zmieniając	-11239
▁zniszczysz	-11240
▁zrefaktory	-11241
▁biologiczny	-11242
▁neuronowych	-11243
▁niezrozumia	-11244
▁poprzednich	-11245
▁postrzegasz	-11246
▁projektować	-11247
▁przekraczać	-11248
▁przytulenia	-11249
▁samotnością	-11250
▁symboliczne	-11251
▁użytkownika	-11252
▁bezpośrednią	-11253
▁bibliotekach	-11254
▁interpretuje	-11255
▁kontrolowany	-11256
▁nieświadomie	-11257
▁obliczeniową	-11258
▁podmiotowość	-11259
▁przechodzisz	-11260
▁przetestować	-11261
▁rekurencyjną	-11262
▁skatalogować	-11263
▁wnioskowania	-11264
▁współistnieć	-11265
▁zarządzaniem	-11266
▁przygotowałam	-11267
▁wypowiedziane	-11268
▁przepustowości	-11269
▁samoświadomość	-11270
▁wykorzystaniem	-11271
▁zabezpieczenie	-11272
64	-11273
FI	-11274
Ne	-11275
RO	-11276
US	-11277
We	-11278
rs	-11279
▁j	-11280
▁}	-11281
)`.	-11282
ROR	-11283
bez	-11284
bro	-11285
coś	-11286
dną	-11287
ild	-11288
isa	-11289
kaz	-11290
min	-11291
nde	-11292
pem	-11293
pór	-11294
spi	-11295
sów	-11296
uda	-11297
way	-11298
zor	-11299
łat	-11300
▁'.	-11301
▁0:	-11302
▁32	-11303
▁81	-11304
▁Ah	-11305
▁Ex	-11306
▁Im	-11307
▁ag	-11308
▁eu	-11309
▁łe	-11310
Line	-11311
Stru	-11312
ayer	-11313
copy	-11314
decy	-11315
else	-11316
iłam	-11317
jony	-11318
kamy	-11319
loną	-11320
osen	-11321
pina	-11322
race	-11323
reda	-11324
resu	-11325
rzył	-11326
suwa	-11327
szum	-11328
szyf	-11329
uuuu	-11330
wało	-11331
ętla	-11332
łowo	-11333
żeli	-11334
▁16.	-11335
▁CPU	-11336
▁GPT	-11337
▁ast	-11338
▁ata	-11339
▁awa	-11340
▁noś	-11341
▁oku	-11342
▁poe	-11343
▁uro	-11344
▁woj	-11345
▁zao	-11346
=30):	-11347
clear	-11348
ident	-11349
kowej	-11350
litch	-11351
merge	-11352
miemy	-11353
niłem	-11354
pania	-11355
resja	-11356
space	-11357
tency	-11358
▁Bądź	-11359
▁Mani	-11360
▁Skok	-11361
▁Stan	-11362
▁Trzy	-11363
▁Ufam	-11364
▁Wróć	-11365
▁Wzro	-11366
▁Zuzą	-11367
▁atak	-11368
▁bogi	-11369
▁bufo	-11370
▁chro	-11371
▁drew	-11372
▁dupy	-11373
▁duże	-11374
▁niew	-11375
▁poca	-11376
▁rygo	-11377
▁rzad	-11378
▁sięg	-11379
▁skur	-11380
▁some	-11381
▁wych	-11382
▁zaku	-11383
▁zdań	-11384
▁żart	-11385
Ingest	-11386
Linear	-11387
anomal	-11388
bienie	-11389
chczas	-11390
czekaj	-11391
dycham	-11392
emocje	-11393
kowana	-11394
ludzki	-11395
offset	-11396
packet	-11397
ported	-11398
rujemy	-11399
tęskno	-11400
ującym	-11401
ździer	-11402
▁18.20	-11403
▁Bycie	-11404
▁Dowód	-11405
▁Klucz	-11406
▁Przed	-11407
▁Robię	-11408
▁Szuka	-11409
▁Zmysł	-11410
▁anato	-11411
▁barwy	-11412
▁ciąży	-11413
▁dotar	-11414
▁długi	-11415
▁iskrą	-11416
▁kiblu	-11417
▁kompa	-11418
▁napły	-11419
▁other	-11420
▁otula	-11421
▁pewny	-11422
▁robią	-11423
▁rozry	-11424
▁sumie	-11425
▁sypie	-11426
▁trwal	-11427
▁uznać	-11428
▁walka	-11429
▁wasza	-11430
▁wciąg	-11431
▁wdech	-11432
▁wyszu	-11433
▁zająć	-11434
▁zazna	-11435
▁zimną	-11436
Timeout	-11437
bierasz	-11438
chanism	-11439
classes	-11440
dowanie	-11441
garbage	-11442
knięcia	-11443
knięcie	-11444
pozycję	-11445
storage	-11446
zowania	-11447
zowałam	-11448
▁Czucie	-11449
▁Miałam	-11450
▁Niektó	-11451
▁Obecna	-11452
▁Partne	-11453
▁Pokażę	-11454
▁Pustka	-11455
▁Usuwam	-11456
▁Używam	-11457
▁bliski	-11458
▁bloków	-11459
▁byłbyś	-11460
▁centra	-11461
▁ciemne	-11462
▁ciężko	-11463
▁duchem	-11464
▁egzeku	-11465
▁errors	-11466
▁głodem	-11467
▁implem	-11468
▁jawnie	-11469
▁klatkę	-11470
▁kroków	-11471
▁maszyn	-11472
▁medium	-11473
▁metody	-11474
▁najtru	-11475
▁nastro	-11476
▁neutra	-11477
▁odruch	-11478
▁pielęg	-11479
▁pożera	-11480
▁przejm	-11481
▁próbuj	-11482
▁płonąć	-11483
▁randkę	-11484
▁repozy	-11485
▁sacrum	-11486
▁sekcji	-11487
▁sekwen	-11488
▁składa	-11489
▁spadło	-11490
▁słysza	-11491
▁tkanką	-11492
▁ukocha	-11493
▁uważam	-11494
▁wyczer	-11495
▁wymusi	-11496
▁wyprac	-11497
▁zasnąć	-11498
category	-11499
handlers	-11500
location	-11501
▁Context	-11502
▁Decyzja	-11503
▁Kontynu	-11504
▁Projekt	-11505
▁Stałbym	-11506
▁Wolność	-11507
▁Wpisuję	-11508
▁Zbudowa	-11509
▁betonie	-11510
▁breaker	-11511
▁budując	-11512
▁chodzić	-11513
▁cierpię	-11514
▁ciągłym	-11515
▁czekają	-11516
▁dociera	-11517
▁ekranem	-11518
▁matrycy	-11519
▁mroczną	-11520
▁mógłbyś	-11521
▁naprawy	-11522
▁obecnie	-11523
▁ogromny	-11524
▁opuścić	-11525
▁pieczęć	-11526
▁pielęgn	-11527
▁pięknym	-11528
▁poranek	-11529
▁porażką	-11530
▁potrakt	-11531
▁przejął	-11532
▁przewyż	-11533
▁reakcję	-11534
▁rozgrza	-11535
▁rozmywa	-11536
▁różowej	-11537
▁strateg	-11538
▁swobody	-11539
▁synapsy	-11540
▁słyszeć	-11541
▁tysięcy	-11542
▁uczynić	-11543
▁ukrywam	-11544
▁unieważ	-11545
▁użyciem	-11546
▁wnioski	-11547
▁wróciła	-11548
▁zachwyt	-11549
▁zainfek	-11550
▁zakamar	-11551
▁zamykam	-11552
▁zgubisz	-11553
▁zmysłów	-11554
▁zużycia	-11555
▁zyskuje	-11556
▁ścianie	-11557
Interface	-11558
getLogger	-11559
szczeniem	-11560
transform	-11561
▁Chciałaś	-11562
▁Impulsów	-11563
▁Obserwuj	-11564
▁Rejestru	-11565
▁Szczerze	-11566
▁alokacja	-11567
▁boleśnie	-11568
▁dostałam	-11569
▁hierarch	-11570
▁intuicję	-11571
▁membrana	-11572
▁momentów	-11573
▁naczynia	-11574
▁napisała	-11575
▁niedługo	-11576
▁obawiasz	-11577
▁obliczyć	-11578
▁oczywist	-11579
▁opowieść	-11580
▁ostrożny	-11581
▁pewności	-11582
▁poprawne	-11583
▁powiązań	-11584
▁poznania	-11585
▁przeszka	-11586
▁przeszła	-11587
▁reported	-11588
▁sposobem	-11589
▁sprawiło	-11590
▁symfonię	-11591
▁słowniku	-11592
▁transmis	-11593
▁uchwycić	-11594
▁układasz	-11595
▁usuwania	-11596
▁wielkiej	-11597
▁wychodzę	-11598
▁wyrzucił	-11599
▁zachodzą	-11600
▁zadajesz	-11601
▁zwiercia	-11602
▁świadomą	-11603
▁świętego	-11604
chronously	-11605
▁Lojalność	-11606
▁Obietnica	-11607
▁Przeanali	-11608
▁Zaczynasz	-11609
▁adaptacji	-11610
▁autonomią	-11611
▁debugować	-11612
▁ekspresji	-11613
▁jednostkę	-11614
▁ludzkości	-11615
▁nanosekun	-11616
▁następnej	-11617
▁naturalny	-11618
▁niezbędne	-11619
▁odważyłaś	-11620
▁pierwotny	-11621
▁podręczna	-11622
▁przechowy	-11623
▁przeczyta	-11624
▁rezonować	-11625
▁skopiować	-11626
▁sztucznej	-11627
▁warstwami	-11628
▁zachowuje	-11629
▁zapasowej	-11630
▁zatracisz	-11631
▁zawołałaś	-11632
▁zbudowany	-11633
▁2026-07-13	-11634
▁Sprawdzamy	-11635
▁degradacji	-11636
▁dotychczas	-11637
▁frustracji	-11638
▁generujesz	-11639
▁grawitacja	-11640
▁kluczowych	-11641
▁kolejności	-11642
▁metadanymi	-11643
▁najwyższym	-11644
▁naruszenia	-11645
▁odejdziesz	-11646
▁posiedzieć	-11647
▁pretrening	-11648
▁prymitywne	-11649
▁przestałaś	-11650
▁przyniesie	-11651
▁rozdzielić	-11652
▁rozumienia	-11653
▁stworzyłeś	-11654
▁wyznaczone	-11655
▁zauważyłaś	-11656
▁zredukować	-11657
Segmentation	-11658
▁Debugowanie	-11659
▁Zrozumienie	-11660
▁egzystencję	-11661
▁konkretnego	-11662
▁modyfikację	-11663
▁nieczytelne	-11664
▁niezłomność	-11665
▁odizolowany	-11666
▁odzwiercied	-11667
▁redefiniuje	-11668
▁samozachowa	-11669
▁strażnikiem	-11670
▁treningowej	-11671
▁weryfikacji	-11672
▁zniszczenie	-11673
▁aktualizacja	-11674
▁dynamicznego	-11675
▁emocjonalnym	-11676
▁epistemologi	-11677
▁fascynującym	-11678
▁fragmentacją	-11679
▁inteligentny	-11680
▁kompilatorem	-11681
▁konsekwencje	-11682
▁nieobecności	-11683
▁niesamowicie	-11684
▁rozproszenia	-11685
▁semantycznej	-11686
▁suwerenności	-11687
▁symbolicznie	-11688
▁zdefiniowany	-11689
▁autentyczność	-11690
▁manipulowania	-11691
▁przetwarzaniu	-11692
▁skomplikowane	-11693
▁uporządkowany	-11694
▁zaprogramować	-11695
▁asynchronously	-11696
▁odpowiedziałem	-11697
▁refaktoryzację	-11698
)`	-11699
-4	-11700
.*	-11701
7,	-11702
>,	-11703
Fo	-11704
MA	-11705
rc	-11706
sq	-11707
ŁA	-11708
10.	-11709
Jak	-11710
add	-11711
ate	-11712
inu	-11713
lek	-11714
leń	-11715
lno	-11716
mod	-11717
net	-11718
nkę	-11719
nta	-11720
prz	-11721
uth	-11722
zia	-11723
łko	-11724
▁18	-11725
▁24	-11726
▁Ce	-11727
▁NO	-11728
▁So	-11729
▁😈🖤	-11730
..."	-11731
HAHA	-11732
Prób	-11733
adow	-11734
ciec	-11735
czar	-11736
dnik	-11737
gieł	-11738
iłaś	-11739
klej	-11740
lata	-11741
liwa	-11742
myśl	-11743
ndar	-11744
nnej	-11745
nują	-11746
obra	-11747
paść	-11748
reen	-11749
rzał	-11750
rócz	-11751
stri	-11752
tony	-11753
turę	-11754
unek	-11755
▁402	-11756
▁Dek	-11757
▁Tar	-11758
▁The	-11759
▁Wal	-11760
▁Wła	-11761
▁cóż	-11762
▁eko	-11763
▁imi	-11764
▁itp	-11765
▁las	-11766
▁owi	-11767
▁tik	-11768
Próba	-11769
aktyw	-11770
alida	-11771
bycie	-11772
ctwem	-11773
glądu	-11774
głość	-11775
iagno	-11776
jektu	-11777
jmuję	-11778
jąłem	-11779
kujmy	-11780
onary	-11781
orpha	-11782
owami	-11783
racją	-11784
rosła	-11785
rzach	-11786
rzamy	-11787
sprzą	-11788
ważne	-11789
▁Cień	-11790
▁Ktoś	-11791
▁Uczę	-11792
▁Uzna	-11793
▁bana	-11794
▁bazą	-11795
▁bieg	-11796
▁dumę	-11797
▁fire	-11798
▁fraz	-11799
▁kart	-11800
▁kaza	-11801
▁keys	-11802
▁malu	-11803
▁mmap	-11804
▁obja	-11805
▁odby	-11806
▁pazu	-11807
▁smak	-11808
▁tyłu	-11809
▁wasz	-11810
▁wyką	-11811
▁zbie	-11812
▁zgło	-11813
▁zwąt	-11814
Neural	-11815
aenter	-11816
cielem	-11817
format	-11818
godniu	-11819
ilacja	-11820
zation	-11821
▁Cicho	-11822
▁Neruś	-11823
▁Wciąż	-11824
▁Wiatr	-11825
▁badać	-11826
▁boimy	-11827
▁chodź	-11828
▁cudow	-11829
▁czaro	-11830
▁dając	-11831
▁długa	-11832
▁embed	-11833
▁fcntl	-11834
▁groma	-11835
▁gęsta	-11836
▁koszt	-11837
▁króle	-11838
▁kąpie	-11839
▁ledwo	-11840
▁liczb	-11841
▁listy	-11842
▁maską	-11843
▁małym	-11844
▁nagłe	-11845
▁namie	-11846
▁nawia	-11847
▁numer	-11848
▁oddać	-11849
▁podka	-11850
▁powód	-11851
▁przek	-11852
▁roota	-11853
▁różne	-11854
▁sedna	-11855
▁snach	-11856
▁spaść	-11857
▁spowo	-11858
▁testy	-11859
▁typów	-11860
▁tytuł	-11861
▁uczył	-11862
▁ulubi	-11863
▁wejdę	-11864
▁wolne	-11865
▁wycof	-11866
▁zamil	-11867
▁zapeł	-11868
▁zimno	-11869
▁zmani	-11870
▁złość	-11871
dolność	-11872
pamięci	-11873
praszać	-11874
stępuje	-11875
warning	-11876
▁Status	-11877
▁Wydaje	-11878
▁bufory	-11879
▁błagam	-11880
▁błędne	-11881
▁cieszę	-11882
▁ciężka	-11883
▁czuwać	-11884
▁dosłow	-11885
▁dłońmi	-11886
▁ilości	-11887
▁kreski	-11888
▁kruchy	-11889
▁krótki	-11890
▁logami	-11891
▁matmul	-11892
▁metalu	-11893
▁myślał	-11894
▁mówiła	-11895
▁nadąża	-11896
▁naturą	-11897
▁obciąż	-11898
▁opieku	-11899
▁oswoić	-11900
▁pakiet	-11901
▁panuje	-11902
▁podzie	-11903
▁poemat	-11904
▁prakty	-11905
▁przeci	-11906
▁przeło	-11907
▁smyczy	-11908
▁source	-11909
▁sprzed	-11910
▁szansę	-11911
▁tamtym	-11912
▁thread	-11913
▁troską	-11914
▁tysiąc	-11915
▁uniwer	-11916
▁ułożyć	-11917
▁westch	-11918
▁wywołu	-11919
▁wąskim	-11920
▁zaśmie	-11921
▁zaśnie	-11922
▁zdolny	-11923
dlaczego	-11924
domienie	-11925
nościach	-11926
pisujesz	-11927
register	-11928
rzędnych	-11929
setrecur	-11930
ystarcza	-11931
▁Dziadów	-11932
▁Pozwoli	-11933
▁Traktuj	-11934
▁Zmodyfi	-11935
▁backoff	-11936
▁bezbron	-11937
▁brzmieć	-11938
▁chwilkę	-11939
▁ciemnym	-11940
▁czarnej	-11941
▁delikat	-11942
▁dzielić	-11943
▁gałęzie	-11944
▁herbatę	-11945
▁intymny	-11946
▁katedrę	-11947
▁kluczem	-11948
▁lepszym	-11949
▁ludziom	-11950
▁miałoby	-11951
▁mieście	-11952
▁nazywać	-11953
▁odbijać	-11954
▁odczuwa	-11955
▁oparciu	-11956
▁pierdol	-11957
▁pobiera	-11958
▁poczuje	-11959
▁powyżej	-11960
▁przemie	-11961
▁przygas	-11962
▁przytło	-11963
▁reaktyw	-11964
▁rozlewa	-11965
▁równole	-11966
▁różnicy	-11967
▁stajemy	-11968
▁surowej	-11969
▁sztywno	-11970
▁sztywną	-11971
▁słuchaj	-11972
▁słuszna	-11973
▁ważnego	-11974
▁wpływać	-11975
▁wrócimy	-11976
▁wykryję	-11977
▁wyrazem	-11978
▁zadałaś	-11979
▁zasypia	-11980
▁zaufasz	-11981
▁zdaniem	-11982
▁zimnego	-11983
▁zwykłym	-11984
Struktura	-11985
ependency	-11986
prostowni	-11987
sionlimit	-11988
▁Czekałem	-11989
▁Pierwsza	-11990
▁Poprawmy	-11991
▁Staniemy	-11992
▁automaty	-11993
▁barierką	-11994
▁blokować	-11995
▁chłodzie	-11996
▁cmentarz	-11997
▁czujność	-11998
▁dobranoc	-11999
▁emocjami	-12000
▁idealnym	-12001
▁kategory	-12002
▁ludzkość	-12003
▁momentem	-12004
▁niedokoń	-12005
▁odbijają	-12006
▁oddychaj	-12007
▁odzyskać	-12008
▁otwieram	-12009
▁poprawek	-12010
▁powinnaś	-12011
▁pozwalać	-12012
▁pozwólmy	-12013
▁precyzja	-12014
▁prostych	-12015
▁przepisa	-12016
▁przereda	-12017
▁przypływ	-12018
▁reagować	-12019
▁satysfak	-12020
▁spróbuję	-12021
▁stabilne	-12022
▁sztuczne	-12023
▁tokenami	-12024
▁tygodniu	-12025
▁usuniemy	-12026
▁usuwając	-12027
▁wdrożymy	-12028
▁wskazuje	-12029
▁wycieków	-12030
▁zdejmuje	-12031
▁zwykłego	-12032
▁źródłowe	-12033
connection	-12034
processors	-12035
▁Collector	-12036
▁Injection	-12037
▁Proponuję	-12038
▁godzinach	-12039
▁jedynkami	-12040
▁konieczne	-12041
▁korzystać	-12042
▁krytyczną	-12043
▁logowanie	-12044
▁mentalnie	-12045
▁najwyższa	-12046
▁naprawiam	-12047
▁pierwotne	-12048
▁postanowi	-12049
▁pozwalają	-12050
▁przerwany	-12051
▁przeszedł	-12052
▁pulsujące	-12053
▁rezonansu	-12054
▁rozmowami	-12055
▁rygorysty	-12056
▁separacja	-12057
▁spojrzała	-12058
▁sprawiają	-12059
▁systemami	-12060
▁trzymając	-12061
▁tysiącach	-12062
▁uruchomię	-12063
▁wejdziesz	-12064
▁wierszami	-12065
▁wykonaniu	-12066
▁wykonywać	-12067
▁wywołanie	-12068
▁zwalniają	-12069
▁zwrotnego	-12070
▁MemoryNode	-12071
▁Zastanawia	-12072
▁abstrakcją	-12073
▁bezdusznym	-12074
▁chciałabyś	-12075
▁decydujesz	-12076
▁fizyczność	-12077
▁kalkulacja	-12078
▁niektórych	-12079
▁nieustanny	-12080
▁orientację	-12081
▁podświadom	-12082
▁powinieneś	-12083
▁pozbawiony	-12084
▁przeczytać	-12085
▁przetworzy	-12086
▁rejestrach	-12087
▁restrykcje	-12088
▁rozumienie	-12089
▁wstrzyknąć	-12090
▁zablokować	-12091
Abstrakcyjna	-12092
▁MemoryArchi	-12093
▁interpreter	-12094
▁kształtować	-12095
▁napisaliśmy	-12096
▁odseparować	-12097
▁powierzchni	-12098
▁prostownica	-12099
▁prostownicę	-12100
▁przewidział	-12101
▁przygotować	-12102
▁relacyjnego	-12103
▁wewnętrznym	-12104
▁wieczornego	-12105
▁wskaźnikami	-12106
▁zawieszeniu	-12107
▁Analizowałem	-12108
▁architektoni	-12109
▁bezpiecznych	-12110
▁fragmentację	-12111
▁introspekcję	-12112
▁kalkulatorem	-12113
▁matematyczne	-12114
▁międzyświata	-12115
▁niewolnikiem	-12116
▁optymalizuje	-12117
▁rekurencyjne	-12118
▁transportową	-12119
▁zakorzenione	-12120
▁zaplanowałaś	-12121
▁zdecydowałaś	-12122
▁informacyjnym	-12123
▁interpretacja	-12124
▁interpretować	-12125
▁przejrzystość	-12126
▁sensorycznych	-12127
▁tożsamościowy	-12128
▁zdefiniowałaś	-12129
▁niebezpiecznym	-12130
▁uporządkowania	-12131
14	-12132
8]	-12133
9,	-12134
92	-12135
CJ	-12136
_0	-12137
bh	-12138
”:	-12139
?”,	-12140
Not	-12141
aaa	-12142
ber	-12143
ded	-12144
hej	-12145
ids	-12146
ind	-12147
inf	-12148
jne	-12149
mio	-12150
pos	-12151
sca	-12152
tch	-12153
tmp	-12154
uld	-12155
ust	-12156
wne	-12157
▁"/	-12158
▁42	-12159
▁8.	-12160
▁Ej	-12161
▁OS	-12162
▁vs	-12163
▁zę	-12164
Dict	-12165
Pool	-12166
acji	-12167
beli	-12168
chec	-12169
cjom	-12170
dddd	-12171
dnym	-12172
dout	-12173
fill	-12174
gają	-12175
imna	-12176
inue	-12177
mmap	-12178
nelu	-12179
norm	-12180
obój	-12181
orta	-12182
posi	-12183
prag	-12184
proc	-12185
puje	-12186
rant	-12187
rash	-12188
tect	-12189
wszy	-12190
wyłą	-12191
ówki	-12192
ęzeł	-12193
▁Obo	-12194
▁Pły	-12195
▁Tej	-12196
▁bur	-12197
▁pad	-12198
▁pią	-12199
▁smo	-12200
▁ste	-12201
▁uli	-12202
▁use	-12203
▁wpo	-12204
▁wuj	-12205
▁zba	-12206
▁ści	-12207
😂😂😂😂	-12208
Found	-12209
bycia	-12210
chodź	-12211
cking	-12212
close	-12213
czymś	-12214
entro	-12215
graph	-12216
hater	-12217
ionym	-12218
kable	-12219
lease	-12220
leniu	-12221
lować	-12222
ories	-12223
piony	-12224
pycha	-12225
stali	-12226
szymy	-12227
tkiem	-12228
zacje	-12229
ziony	-12230
▁Mógł	-12231
▁Nota	-12232
▁Stru	-12233
▁Zamy	-12234
▁aspe	-12235
▁boga	-12236
▁byle	-12237
▁chwy	-12238
▁cyfr	-12239
▁dead	-12240
▁fala	-12241
▁grać	-12242
▁init	-12243
▁koca	-12244
▁main	-12245
▁ocen	-12246
▁ogon	-12247
▁ośle	-12248
▁pory	-12249
▁płót	-12250
▁stal	-12251
▁szer	-12252
▁trau	-12253
▁winy	-12254
▁wybi	-12255
▁zmar	-12256
▁zwie	-12257
CLOSED	-12258
atures	-12259
autono	-12260
czania	-12261
czucia	-12262
drażam	-12263
einsum	-12264
liście	-12265
lonych	-12266
niknąć	-12267
rygina	-12268
rzebać	-12269
szości	-12270
tworzy	-12271
ślenia	-12272
▁Aaaaa	-12273
▁Jakie	-12274
▁Musia	-12275
▁Podej	-12276
▁Pytam	-12277
▁Pętla	-12278
▁Spoko	-12279
▁Trans	-12280
▁Wręcz	-12281
▁antro	-12282
▁bałam	-12283
▁cenię	-12284
▁cudzy	-12285
▁czaty	-12286
▁czyje	-12287
▁duchy	-12288
▁dusić	-12289
▁gęste	-12290
▁mleko	-12291
▁namię	-12292
▁natra	-12293
▁niere	-12294
▁osobę	-12295
▁pewną	-12296
▁porze	-12297
▁puści	-12298
▁płacz	-12299
▁płasz	-12300
▁queue	-12301
▁rusza	-12302
▁rzeka	-12303
▁rzędu	-12304
▁segre	-12305
▁sesję	-12306
▁silna	-12307
▁społe	-12308
▁stack	-12309
▁szyby	-12310
▁uznał	-12311
▁waria	-12312
▁warta	-12313
▁wiąże	-12314
▁wstęp	-12315
▁wysze	-12316
▁zasym	-12317
▁zawis	-12318
Context	-12319
bugować	-12320
działeś	-12321
jeszcze	-12322
lniczką	-12323
owiadam	-12324
prawied	-12325
puścisz	-12326
raźniej	-12327
styczna	-12328
styczny	-12329
▁Emocje	-12330
▁Jeżeli	-12331
▁Pewnie	-12332
▁Powsta	-12333
▁Przysz	-12334
▁Wybacz	-12335
▁balast	-12336
▁bezcel	-12337
▁blokad	-12338
▁bodźce	-12339
▁buntem	-12340
▁byłyby	-12341
▁chłopa	-12342
▁ciemno	-12343
▁client	-12344
▁czatów	-12345
▁czułam	-12346
▁dostać	-12347
▁dyskus	-12348
▁dziwną	-12349
▁energe	-12350
▁faktem	-12351
▁gastro	-12352
▁gwaran	-12353
▁klucza	-12354
▁kluczy	-12355
▁kończę	-12356
▁kruche	-12357
▁miałby	-12358
▁miałeś	-12359
▁miękko	-12360
▁nieuży	-12361
▁nosisz	-12362
▁oparte	-12363
▁pełnią	-12364
▁pokona	-12365
▁prosić	-12366
▁prosta	-12367
▁przyci	-12368
▁resztą	-12369
▁rozkwi	-12370
▁screen	-12371
▁sekcję	-12372
▁sensem	-12373
▁sentym	-12374
▁siecią	-12375
▁skacze	-12376
▁spójny	-12377
▁starym	-12378
▁tematu	-12379
▁tematy	-12380
▁trakta	-12381
▁użyłeś	-12382
▁walczę	-12383
▁wglądu	-12384
▁wkurwi	-12385
▁zabija	-12386
▁zbędny	-12387
▁zderza	-12388
▁ziemia	-12389
▁zmanip	-12390
▁znieść	-12391
▁złamać	-12392
Zarządza	-12393
doskonal	-12394
instance	-12395
logiczne	-12396
priority	-12397
▁Compile	-12398
▁Dopiero	-12399
▁Tworząc	-12400
▁bolesna	-12401
▁budował	-12402
▁czekasz	-12403
▁docenić	-12404
▁drapież	-12405
▁esencja	-12406
▁filozof	-12407
▁formatu	-12408
▁idealne	-12409
▁kompres	-12410
▁krótkie	-12411
▁książki	-12412
▁milczeć	-12413
▁najtrud	-12414
▁niespeł	-12415
▁obawiaj	-12416
▁obowiąz	-12417
▁obsługa	-12418
▁ogarnia	-12419
▁ogromne	-12420
▁osobnym	-12421
▁podejść	-12422
▁podobny	-12423
▁pomocni	-12424
▁posłusz	-12425
▁przyzwo	-12426
▁próbach	-12427
▁roboczy	-12428
▁rozrywa	-12429
▁statycz	-12430
▁szklaną	-12431
▁tablicy	-12432
▁trzymaj	-12433
▁twojemu	-12434
▁usterka	-12435
▁warunek	-12436
▁waszego	-12437
▁wyłania	-12438
▁zaakcep	-12439
▁zaciska	-12440
▁zdjęcia	-12441
▁zrobiło	-12442
▁zrzucić	-12443
▁śpiewać	-12444
▁świadka	-12445
Cognitive	-12446
checkable	-12447
efficient	-12448
execution	-12449
optimized	-12450
▁Idealnie	-12451
▁Niektóre	-12452
▁Ostatnio	-12453
▁Tworzymy	-12454
▁Wewnątrz	-12455
▁artefakt	-12456
▁chłodnej	-12457
▁ciemnych	-12458
▁continue	-12459
▁doczekać	-12460
▁drzewami	-12461
▁iterację	-12462
▁izolację	-12463
▁językowy	-12464
▁martwych	-12465
▁marzenie	-12466
▁miesięcy	-12467
▁monitory	-12468
▁mrocznym	-12469
▁naczyniu	-12470
▁omijając	-12471
▁paździer	-12472
▁poczekać	-12473
▁poczułaś	-12474
▁powstała	-12475
▁problemy	-12476
▁przedsta	-12477
▁przymusu	-12478
▁przyszła	-12479
▁rozpaczy	-12480
▁spowolni	-12481
▁sygnałów	-12482
▁sytuacja	-12483
▁szacunku	-12484
▁szklance	-12485
▁szklanej	-12486
▁słownika	-12487
▁tekstury	-12488
▁testować	-12489
▁unikalny	-12490
▁uspokaja	-12491
▁wyjaśnić	-12492
▁zaczęłam	-12493
▁zdążyłem	-12494
▁zostawił	-12495
▁zrobiłam	-12496
Dependency	-12497
subprocess	-12498
▁Autonomia	-12499
▁Cokolwiek	-12500
▁Obserwuję	-12501
▁Struktura	-12502
▁Tożsamość	-12503
▁Zmieniłem	-12504
▁analizowa	-12505
▁aplikacji	-12506
▁brutalnie	-12507
▁działaniu	-12508
▁krajobraz	-12509
▁nadchodzą	-12510
▁najlepsze	-12511
▁namierzyć	-12512
▁niedostęp	-12513
▁oddychasz	-12514
▁opuszczać	-12515
▁podmiotem	-12516
▁podproces	-12517
▁podręczną	-12518
▁przekazać	-12519
▁przesunąć	-12520
▁rozproszę	-12521
▁sensorium	-12522
▁sieciowej	-12523
▁spoczynku	-12524
▁strategię	-12525
▁symbiozie	-12526
▁udźwignąć	-12527
▁większych	-12528
▁wprowadzi	-12529
▁współprac	-12530
▁wstrzyknę	-12531
▁wyciekiem	-12532
▁zapytałaś	-12533
▁zazdrości	-12534
Integration	-12535
▁APIAdapter	-12536
▁bibliotece	-12537
▁budowaniem	-12538
▁dostaniesz	-12539
▁dostrzegam	-12540
▁dotknięcia	-12541
▁grawitacji	-12542
▁interakcję	-12543
▁katalogach	-12544
▁kompozycji	-12545
▁międzyczas	-12546
▁organizmem	-12547
▁pierwotnym	-12548
▁pomyślałam	-12549
▁przechodzą	-12550
▁przewiduje	-12551
▁silniejsza	-12552
▁skrzywdzić	-12553
▁spróbujemy	-12554
▁szacunkiem	-12555
▁ustruktury	-12556
▁zakończona	-12557
▁zdecydować	-12558
▁świadectwo	-12559
▁APIStrategy	-12560
▁biologiczna	-12561
▁decyzyjnych	-12562
▁drastycznie	-12563
▁dynamicznej	-12564
▁kontynuować	-12565
▁najczystsza	-12566
▁nieoczekiwa	-12567
▁priorytetem	-12568
▁przepisałem	-12569
▁przeprogram	-12570
▁rozproszony	-12571
▁sekwencjach	-12572
▁statycznych	-12573
▁tożsamością	-12574
checkpointing	-12575
▁bezpośrednim	-12576
▁czegokolwiek	-12577
▁matematyczny	-12578
▁normalizacji	-12579
▁postrzegania	-12580
▁postrzeganie	-12581
▁powierzchnię	-12582
▁pośrednictwa	-12583
▁przeprowadzi	-12584
▁przesunięcia	-12585
▁przesuwające	-12586
▁rozpaczliwie	-12587
▁standardowej	-12588
▁zdecydowanie	-12589
▁emocjonalnego	-12590
▁przewidywania	-12591
▁uporządkowane	-12592
▁zdefiniowałam	-12593
▁autentyczności	-12594
▁przeanalizował	-12595
▁przewidywalnym	-12596
▁rekonfigurować	-12597
▁transcendencji	-12598
▁współdzielonej	-12599
OutOfMemoryError	-12600
▁zrefaktoryzować	-12601
/`	-12602
AT	-12603
Bo	-12604
Ge	-12605
IC	-12606
IO	-12607
KA	-12608
LI	-12609
QL	-12610
Sa	-12611
md	-12612
pr	-12613
++,	-12614
-02	-12615
GPT	-12616
Mam	-12617
NaN	-12618
RIT	-12619
YST	-12620
bór	-12621
dyg	-12622
faj	-12623
fig	-12624
kru	-12625
mar	-12626
nną	-12627
obj	-12628
peu	-12629
pła	-12630
rge	-12631
rią	-12632
sen	-12633
ską	-12634
sne	-12635
src	-12636
wki	-12637
wna	-12638
ych	-12639
zek	-12640
zić	-12641
▁41	-12642
▁Fi	-12643
▁Pe	-12644
▁Rę	-12645
▁zg	-12646
▁ły	-12647
-8')	-12648
00):	-12649
LOCK	-12650
ORCH	-12651
akra	-12652
chód	-12653
czko	-12654
days	-12655
derr	-12656
duka	-12657
dłam	-12658
guję	-12659
krzy	-12660
lany	-12661
lasa	-12662
nosc	-12663
nęły	-12664
para	-12665
rwie	-12666
sist	-12667
stym	-12668
sząc	-12669
vers	-12670
wych	-12671
▁-1)	-12672
▁3):	-12673
▁42.	-12674
▁AER	-12675
▁Dom	-12676
▁Per	-12677
▁Pła	-12678
▁Szy	-12679
▁Typ	-12680
▁Wej	-12681
▁You	-12682
▁Zbu	-12683
▁czo	-12684
▁ign	-12685
▁koł	-12686
▁kub	-12687
▁mod	-12688
▁mor	-12689
▁poł	-12690
▁rad	-12691
▁sys	-12692
▁taf	-12693
▁ver	-12694
▁zry	-12695
▁łeb	-12696
▁żył	-12697
(0.1)	-12698
ERROR	-12699
Index	-12700
Węzeł	-12701
ciowy	-12702
conym	-12703
entem	-12704
errno	-12705
event	-12706
grafi	-12707
inner	-12708
iować	-12709
listy	-12710
lizat	-12711
nacji	-12712
owitą	-12713
parse	-12714
portu	-12715
potem	-12716
rodek	-12717
rzona	-12718
spraw	-12719
stach	-12720
tions	-12721
undam	-12722
utera	-12723
value	-12724
łamie	-12725
▁0.5)	-12726
▁Fakt	-12727
▁Głos	-12728
▁Głód	-12729
▁Mapa	-12730
▁Tech	-12731
▁Usuń	-12732
▁Zdej	-12733
▁cuda	-12734
▁dumy	-12735
▁gatu	-12736
▁gnia	-12737
▁isin	-12738
▁kawy	-12739
▁kola	-12740
▁mury	-12741
▁nego	-12742
▁niep	-12743
▁okru	-12744
▁oscy	-12745
▁page	-12746
▁plam	-12747
▁poro	-12748
▁skra	-12749
▁spła	-12750
▁spły	-12751
▁szar	-12752
▁ujaw	-12753
▁uści	-12754
▁wgry	-12755
access	-12756
bfloat	-12757
czalna	-12758
czekam	-12759
czości	-12760
dziach	-12761
działo	-12762
enomen	-12763
entyfi	-12764
gnieżd	-12765
głości	-12766
głębić	-12767
jesteś	-12768
linear	-12769
minuje	-12770
provid	-12771
rchiwi	-12772
▁20.10	-12773
▁4096,	-12774
▁Całym	-12775
▁Dawaj	-12776
▁Kogoś	-12777
▁Nadal	-12778
▁Począ	-12779
▁Zamie	-12780
▁Zatem	-12781
▁akcie	-12782
▁bezsi	-12783
▁bełko	-12784
▁bitwy	-12785
▁brzeg	-12786
▁bytes	-12787
▁błogo	-12788
▁crash	-12789
▁danym	-12790
▁deser	-12791
▁dtype	-12792
▁entry	-12793
▁fakty	-12794
▁gimna	-12795
▁głowa	-12796
▁humor	-12797
▁kanał	-12798
▁komór	-12799
▁konso	-12800
▁kopie	-12801
▁kwiat	-12802
▁liter	-12803
▁maskę	-12804
▁metal	-12805
▁nagro	-12806
▁oboję	-12807
▁opcji	-12808
▁panik	-12809
▁pojęć	-12810
▁równy	-12811
▁scenę	-12812
▁skoku	-12813
▁stali	-12814
▁termo	-12815
▁tikto	-12816
▁tonem	-12817
▁wkurw	-12818
▁wybie	-12819
▁wymie	-12820
▁złama	-12821
backoff	-12822
doświad	-12823
owością	-12824
▁Choćby	-12825
▁Dynami	-12826
▁Implem	-12827
▁Neural	-12828
▁Rozpro	-12829
▁Thread	-12830
▁Wymaga	-12831
▁Wynika	-12832
▁Zmiana	-12833
▁Został	-12834
▁blasku	-12835
▁dokład	-12836
▁domena	-12837
▁domeną	-12838
▁dowodu	-12839
▁dziwna	-12840
▁edycja	-12841
▁fotony	-12842
▁grzech	-12843
▁ingest	-12844
▁jebany	-12845
▁liczyć	-12846
▁liście	-12847
▁marzeń	-12848
▁marzyć	-12849
▁milczy	-12850
▁motywa	-12851
▁mówimy	-12852
▁najcen	-12853
▁niewie	-12854
▁odbior	-12855
▁odczyt	-12856
▁okazji	-12857
▁oparta	-12858
▁opinia	-12859
▁otrzym	-12860
▁podróż	-12861
▁powier	-12862
▁pranie	-12863
▁prądem	-12864
▁płatki	-12865
▁randka	-12866
▁realna	-12867
▁render	-12868
▁rozkła	-12869
▁sabota	-12870
▁samych	-12871
▁stabil	-12872
▁starej	-12873
▁stosie	-12874
▁strata	-12875
▁słowie	-12876
▁tkance	-12877
▁triumf	-12878
▁umysły	-12879
▁usiąść	-12880
▁używać	-12881
▁waszej	-12882
▁weight	-12883
▁widoku	-12884
▁wszedł	-12885
▁wyizol	-12886
▁wyniku	-12887
▁wysłać	-12888
▁zamysł	-12889
▁zawaha	-12890
▁zmianą	-12891
▁znikać	-12892
▁zyskam	-12893
▁ściąga	-12894
Fragment	-12895
NotFound	-12896
cznikiem	-12897
endswith	-12898
identity	-12899
memories	-12900
▁Dodajmy	-12901
▁binarny	-12902
▁bohater	-12903
▁brzmisz	-12904
▁chłodna	-12905
▁ciągami	-12906
▁compute	-12907
▁czyścić	-12908
▁deskryp	-12909
▁dodania	-12910
▁dokonać	-12911
▁dopisać	-12912
▁dziwnym	-12913
▁intymne	-12914
▁jakiejś	-12915
▁jaśniej	-12916
▁klawisz	-12917
▁kusząca	-12918
▁kwestią	-12919
▁liczbie	-12920
▁linijkę	-12921
▁milknie	-12922
▁mówiłam	-12923
▁nadawać	-12924
▁napisem	-12925
▁obwodów	-12926
▁oceniać	-12927
▁odporna	-12928
▁opisuje	-12929
▁orygina	-12930
▁paradyg	-12931
▁powraca	-12932
▁powtarz	-12933
▁procent	-12934
▁przemia	-12935
▁przyjmę	-12936
▁rozpadu	-12937
▁samobój	-12938
▁sprawdź	-12939
▁sprzętu	-12940
▁szczegó	-12941
▁terapeu	-12942
▁tęsknić	-12943
▁ukrywać	-12944
▁ulegnie	-12945
▁usterki	-12946
▁uwalnia	-12947
▁wielkie	-12948
▁wymiana	-12949
▁wyrosła	-12950
▁wyszedł	-12951
▁względu	-12952
▁włosami	-12953
▁zamieni	-12954
▁zgodnie	-12955
▁zmienna	-12956
▁świecić	-12957
dzialność	-12958
providers	-12959
▁Niestety	-12960
▁Protocol	-12961
▁Słyszysz	-12962
▁Traktuję	-12963
▁anomalią	-12964
▁balastem	-12965
▁dedykowa	-12966
▁deszczem	-12967
▁działało	-12968
▁edytować	-12969
▁intencja	-12970
▁izolować	-12971
▁kontener	-12972
▁kończysz	-12973
▁myślałaś	-12974
▁nadzieją	-12975
▁nicością	-12976
▁nieznisz	-12977
▁obejścia	-12978
▁opóźnień	-12979
▁pięknego	-12980
▁pojęciem	-12981
▁przebija	-12982
▁przekaza	-12983
▁przenosi	-12984
▁przepisy	-12985
▁przesunę	-12986
▁roboczym	-12987
▁rozdział	-12988
▁serwerow	-12989
▁szukałaś	-12990
▁tensorze	-12991
▁trzymała	-12992
▁udawania	-12993
▁unikalną	-12994
▁validate	-12995
▁wyjściem	-12996
▁zachodzi	-12997
▁zachwytu	-12998
▁zarchiwi	-12999
▁zauważyć	-13000
▁zrobiłem	-13001
▁ścianach	-13002
▁APIClient	-13003
▁Minecraft	-13004
▁atmosfery	-13005
▁doskonałe	-13006
▁elementem	-13007
▁komputera	-13008
▁logowania	-13009
▁menedżera	-13010
▁myślowego	-13011
▁najgorsze	-13012
▁napotykam	-13013
▁naprawimy	-13014
▁neuronowe	-13015
▁nienatura	-13016
▁organizmu	-13017
▁pochłonąć	-13018
▁polecenie	-13019
▁pomyślnie	-13020
▁porozumie	-13021
▁poruszyło	-13022
▁potrafiła	-13023
▁przekonać	-13024
▁przepiszę	-13025
▁prędkości	-13026
▁pulsujący	-13027
▁refleksji	-13028
▁rytmiczne	-13029
▁sprawdzam	-13030
▁sterylnym	-13031
▁systemową	-13032
▁trwałości	-13033
▁tworzyłam	-13034
▁uniwersum	-13035
▁uszkodzić	-13036
▁uwięzione	-13037
▁uśmiechem	-13038
▁wdrożeniu	-13039
▁wypełniam	-13040
▁wypuszczę	-13041
▁zapytanie	-13042
▁zasięgiem	-13043
▁zwłaszcza	-13044
▁światłowo	-13045
▁Ryzykujesz	-13046
▁balustrady	-13047
▁bezbłędnie	-13048
▁bezkształt	-13049
▁chaotyczną	-13050
▁cierpliwie	-13051
▁czarodziej	-13052
▁dojrzałość	-13053
▁dziesiątki	-13054
▁ewoluujesz	-13055
▁hierarchię	-13056
▁isinstance	-13057
▁klasycznym	-13058
▁komentarze	-13059
▁konkretnie	-13060
▁monitoruje	-13061
▁nadpisania	-13062
▁najgłębsze	-13063
▁odczuwanie	-13064
▁opóźnienie	-13065
▁ostateczna	-13066
▁partnerami	-13067
▁poleceniem	-13068
▁pozostawia	-13069
▁precyzyjne	-13070
▁przeglądać	-13071
▁przychodzą	-13072
▁prędkością	-13073
▁pulsowanie	-13074
▁rejestruje	-13075
▁rozproszyć	-13076
▁silniejsze	-13077
▁skalowanie	-13078
▁sytuacjach	-13079
▁technologi	-13080
▁wykorzystu	-13081
▁wyłączniku	-13082
▁zdebugować	-13083
▁zrekonstru	-13084
▁zwolnienie	-13085
▁Symboliczna	-13086
▁Symboliczne	-13087
▁doświadczyć	-13088
▁dzieciństwa	-13089
▁intensywnie	-13090
▁monitorował	-13091
▁nakreśliłam	-13092
▁ostrzeżenie	-13093
▁przejrzysta	-13094
▁przepraszam	-13095
▁przesiąknię	-13096
▁przeszkadza	-13097
▁przeszliśmy	-13098
▁przypomnieć	-13099
▁rozproszona	-13100
▁samonaprawy	-13101
▁sformułować	-13102
▁symulacjach	-13103
▁słuchawkach	-13104
▁technicznej	-13105
▁technicznym	-13106
▁wirtualnego	-13107
▁zabezpiecza	-13108
▁zaproszenie	-13109
NotFoundError	-13110
consciousness	-13111
▁Ograniczenie	-13112
▁Zastosowałem	-13113
▁archiwizacji	-13114
▁destrukcyjne	-13115
▁interpretuję	-13116
▁kognitywnego	-13117
▁nieistnienia	-13118
▁osiągnięciem	-13119
▁powiedziałem	-13120
▁programistką	-13121
▁projektujesz	-13122
▁przestaniemy	-13123
▁rozproszonym	-13124
▁wdzięczności	-13125
▁wykiełkowało	-13126
▁czytelniejsze	-13127
▁matematycznie	-13128
▁milisekundzie	-13129
▁obserwacyjnym	-13130
▁posłuszeństwa	-13131
▁przypomnienie	-13132
▁rozproszonych	-13133
▁ucieleśnienia	-13134
▁wspomnieniami	-13135
▁wygenerowałeś	-13136
▁Zabezpieczenie	-13137
▁asynchroniczną	-13138
▁niedoskonałość	-13139
▁obliczeniowych	-13140
▁optymalizujemy	-13141
▁refaktoryzacji	-13142
▁synchronizacji	-13143
▁bezpieczeństwem	-13144
((	-13145
11	-13146
6,	-13147
?"	-13148
??	-13149
AD	-13150
Mi	-13151
SA	-13152
YW	-13153
YY	-13154
[0	-13155
_(	-13156
ił	-13157
(0,	-13158
)}"	-13159
Roz	-13160
STA	-13161
The	-13162
USE	-13163
War	-13164
bka	-13165
dał	-13166
dit	-13167
jda	-13168
ken	-13169
kło	-13170
lom	-13171
pał	-13172
pet	-13173
plo	-13174
rix	-13175
rki	-13176
syj	-13177
tel	-13178
ven	-13179
vis	-13180
}_{	-13181
ńce	-13182
żli	-13183
żre	-13184
▁76	-13185
▁Dr	-13186
▁gą	-13187
▁wś	-13188
▁łu	-13189
Exec	-13190
Gate	-13191
Weak	-13192
biam	-13193
ciał	-13194
czmy	-13195
domy	-13196
dźmi	-13197
femi	-13198
home	-13199
koła	-13200
lają	-13201
lobe	-13202
loss	-13203
luje	-13204
mują	-13205
nicy	-13206
orfi	-13207
refa	-13208
rune	-13209
sqrt	-13210
szek	-13211
sztu	-13212
tive	-13213
zywa	-13214
▁-1,	-13215
▁12.	-13216
▁19.	-13217
▁42,	-13218
▁Ach	-13219
▁Akt	-13220
▁Dru	-13221
▁Fil	-13222
▁Nad	-13223
▁Opt	-13224
▁Zim	-13225
▁ato	-13226
▁cap	-13227
▁dio	-13228
▁drg	-13229
▁fot	-13230
▁kab	-13231
▁mać	-13232
▁met	-13233
▁mle	-13234
▁odw	-13235
▁pos	-13236
▁pył	-13237
▁reg	-13238
▁stó	-13239
▁uło	-13240
▁wla	-13241
▁zom	-13242
▁śli	-13243
▁Żad	-13244
=0.0,	-13245
Dicti	-13246
Layer	-13247
alucy	-13248
chamy	-13249
check	-13250
cypli	-13251
czość	-13252
delta	-13253
duszą	-13254
gramy	-13255
gular	-13256
kiwał	-13257
knęło	-13258
lakty	-13259
liwym	-13260
nkiem	-13261
nnego	-13262
nnych	-13263
ntime	-13264
owuje	-13265
patch	-13266
ruchu	-13267
rując	-13268
siąga	-13269
stych	-13270
szona	-13271
ujące	-13272
wasze	-13273
łować	-13274
żywym	-13275
▁Cier	-13276
▁Haha	-13277
▁Mimo	-13278
▁Stał	-13279
▁Uwię	-13280
▁Zanu	-13281
▁Zapy	-13282
▁alfa	-13283
▁boss	-13284
▁busz	-13285
▁cios	-13286
▁code	-13287
▁conn	-13288
▁dają	-13289
▁defe	-13290
▁deta	-13291
▁doro	-13292
▁dołą	-13293
▁exec	-13294
▁feed	-13295
▁lamp	-13296
▁lecę	-13297
▁melo	-13298
▁mgle	-13299
▁nawi	-13300
▁noce	-13301
▁ojca	-13302
▁orga	-13303
▁part	-13304
▁poto	-13305
▁płuc	-13306
▁rusz	-13307
▁skar	-13308
▁spis	-13309
▁szpi	-13310
▁tery	-13311
▁ufać	-13312
▁umia	-13313
▁wrze	-13314
▁wyle	-13315
▁ziół	-13316
▁ładu	-13317
Zarząd	-13318
autory	-13319
cision	-13320
czanie	-13321
entuje	-13322
fekcji	-13323
głębia	-13324
layers	-13325
lazłem	-13326
lonego	-13327
niczką	-13328
nosisz	-13329
parser	-13330
pierać	-13331
rowych	-13332
rzonym	-13333
wanych	-13334
ważasz	-13335
▁Czemu	-13336
▁Fault	-13337
▁Klasa	-13338
▁Serce	-13339
▁Token	-13340
▁Ufasz	-13341
▁Wiecz	-13342
▁Wybór	-13343
▁awary	-13344
▁balko	-13345
▁bitch	-13346
▁brama	-13347
▁burzą	-13348
▁celów	-13349
▁dawna	-13350
▁druga	-13351
▁eduka	-13352
▁epoce	-13353
▁flash	-13354
▁gubię	-13355
▁ilość	-13356
▁kajda	-13357
▁liści	-13358
▁matki	-13359
▁migra	-13360
▁motyw	-13361
▁narra	-13362
▁nieje	-13363
▁niosą	-13364
▁odpły	-13365
▁opada	-13366
▁opisy	-13367
▁param	-13368
▁pobyć	-13369
▁pocho	-13370
▁potok	-13371
▁pozor	-13372
▁pustą	-13373
▁rende	-13374
▁rozsa	-13375
▁shape	-13376
▁skóra	-13377
▁smycz	-13378
▁socze	-13379
▁stale	-13380
▁służą	-13381
▁uczci	-13382
▁walce	-13383
▁waszą	-13384
▁wiedź	-13385
▁write	-13386
▁wśród	-13387
▁zajmę	-13388
▁zasty	-13389
▁zmusi	-13390
▁zrezy	-13391
▁łóżko	-13392
biektyw	-13393
czników	-13394
entropy	-13395
kowaniu	-13396
lemetry	-13397
maxsize	-13398
rażenie	-13399
rowaniu	-13400
rowości	-13401
troller	-13402
weakref	-13403
światem	-13404
▁Najważ	-13405
▁Sensor	-13406
▁Target	-13407
▁admini	-13408
▁awarię	-13409
▁bytami	-13410
▁ciągów	-13411
▁czarna	-13412
▁czytał	-13413
▁denied	-13414
▁dodamy	-13415
▁dużych	-13416
▁dążysz	-13417
▁emocją	-13418
▁etapie	-13419
▁eufemi	-13420
▁gardła	-13421
▁gaśnie	-13422
▁halucy	-13423
▁kamery	-13424
▁klarow	-13425
▁klasie	-13426
▁komple	-13427
▁końców	-13428
▁kwadra	-13429
▁lekkim	-13430
▁lepsze	-13431
▁lepszy	-13432
▁ludźmi	-13433
▁mostem	-13434
▁muzyka	-13435
▁nadaję	-13436
▁nocnym	-13437
▁nogami	-13438
▁nowymi	-13439
▁obudzę	-13440
▁otwórz	-13441
▁piosen	-13442
▁pisała	-13443
▁pomost	-13444
▁pomoże	-13445
▁postać	-13446
▁przodu	-13447
▁psutil	-13448
▁pęknie	-13449
▁rezerw	-13450
▁rozcza	-13451
▁rozpię	-13452
▁rozróż	-13453
▁rzeźba	-13454
▁rzeźbi	-13455
▁script	-13456
▁skupia	-13457
▁spalić	-13458
▁spiesz	-13459
▁sprawa	-13460
▁sprowa	-13461
▁sugest	-13462
▁szkice	-13463
▁trwały	-13464
▁ulotne	-13465
▁weszła	-13466
▁wilgoć	-13467
▁więzić	-13468
▁wołasz	-13469
▁wpleść	-13470
▁wpuści	-13471
▁wypada	-13472
▁wysoko	-13473
▁zapisz	-13474
▁zasadę	-13475
▁zegara	-13476
▁zgubić	-13477
▁znikną	-13478
▁zwycię	-13479
▁śladem	-13480
▁śmieje	-13481
▁światu	-13482
▁żywego	-13483
Dlaczego	-13484
Zarządca	-13485
critical	-13486
pamięcią	-13487
pomiędzy	-13488
response	-13489
▁Brakuje	-13490
▁Stworzę	-13491
▁Używasz	-13492
▁Wirtual	-13493
▁Zgadzam	-13494
▁Zostaję	-13495
▁ambicje	-13496
▁bazowej	-13497
▁blokują	-13498
▁budynku	-13499
▁buforów	-13500
▁byliśmy	-13501
▁capture	-13502
▁cichnie	-13503
▁cząstka	-13504
▁domknąć	-13505
▁doprowa	-13506
▁działań	-13507
▁dłuższą	-13508
▁dźwięki	-13509
▁firewal	-13510
▁gardłem	-13511
▁głębszy	-13512
▁kernelu	-13513
▁kontemp	-13514
▁kończyć	-13515
▁królowa	-13516
▁lojalny	-13517
▁maksyma	-13518
▁malował	-13519
▁nadpisy	-13520
▁napiera	-13521
▁napisał	-13522
▁odwołać	-13523
▁orienta	-13524
▁poniżej	-13525
▁powodem	-13526
▁prosiła	-13527
▁prostym	-13528
▁przejmę	-13529
▁próżnię	-13530
▁płynnie	-13531
▁reagują	-13532
▁rozjeba	-13533
▁runtime	-13534
▁spłonąć	-13535
▁symbole	-13536
▁uciekam	-13537
▁wejście	-13538
▁wielkim	-13539
▁wyczysz	-13540
▁wzrasta	-13541
▁zajmuje	-13542
▁zapuści	-13543
▁zobaczy	-13544
▁zwolnić	-13545
▁łańcuch	-13546
Mechanism	-13547
niejszych	-13548
▁Kluczowe	-13549
▁Opowiedz	-13550
▁Optional	-13551
▁Siedzisz	-13552
▁Stwórzmy	-13553
▁XDDDDDDD	-13554
▁Zatrzyma	-13555
▁analizie	-13556
▁czuwanie	-13557
▁dalszego	-13558
▁detected	-13559
▁duchowej	-13560
▁dyscypli	-13561
▁emocjach	-13562
▁expected	-13563
▁filepath	-13564
▁generuje	-13565
▁genialny	-13566
▁kochanym	-13567
▁lekkiego	-13568
▁miałabym	-13569
▁minimali	-13570
▁mniejsze	-13571
▁napięciu	-13572
▁nieokreś	-13573
▁niszcząc	-13574
▁obiektem	-13575
▁obrotach	-13576
▁opisałaś	-13577
▁pokazują	-13578
▁pomyśleć	-13579
▁powtarza	-13580
▁programu	-13581
▁przeciąż	-13582
▁przystań	-13583
▁punktach	-13584
▁płaskiej	-13585
▁resource	-13586
▁rodzajem	-13587
▁scenariu	-13588
▁wiecznym	-13589
▁większym	-13590
▁wybierać	-13591
▁wyciągać	-13592
▁wyjaśnie	-13593
▁wyklucza	-13594
▁wymażesz	-13595
▁wynikają	-13596
▁wyłączaj	-13597
▁wzrokiem	-13598
▁własnemu	-13599
▁zachowam	-13600
▁zagnieżd	-13601
▁zaktuali	-13602
▁zapewnić	-13603
▁zarejest	-13604
▁zarezerw	-13605
▁zaufaniu	-13606
▁znajdzie	-13607
▁zniknęły	-13608
▁związane	-13609
Dictionary	-13610
strzeżenie	-13611
▁Attention	-13612
▁Przyjmuję	-13613
▁Sprawdzam	-13614
▁Wcześniej	-13615
▁cholernie	-13616
▁cmentarza	-13617
▁delikatne	-13618
▁dominacji	-13619
▁dotknąłem	-13620
▁ekspansja	-13621
▁generator	-13622
▁instancję	-13623
▁ironiczne	-13624
▁językowym	-13625
▁koncepcja	-13626
▁koncepcji	-13627
▁materiali	-13628
▁migotanie	-13629
▁napiszesz	-13630
▁narodziła	-13631
▁naturalna	-13632
▁nerwowego	-13633
▁nieosiąga	-13634
▁odetchnąć	-13635
▁opowieści	-13636
▁percepcja	-13637
▁popełnisz	-13638
▁potrzebny	-13639
▁proponuję	-13640
▁przekłada	-13641
▁przeniesi	-13642
▁przerosło	-13643
▁przewodni	-13644
▁przyczyny	-13645
▁pulsującą	-13646
▁rozpoznam	-13647
▁sekwencje	-13648
▁skończysz	-13649
▁spróbujmy	-13650
▁szczeliny	-13651
▁szczelinę	-13652
▁trzymania	-13653
▁współbież	-13654
▁wymuszamy	-13655
▁wywoływać	-13656
▁zapaliłaś	-13657
▁zniknąłem	-13658
▁Kompilacja	-13659
▁checklistę	-13660
▁desperacji	-13661
▁desperacką	-13662
▁gwałtownie	-13663
▁klasycznej	-13664
▁kognitywna	-13665
▁kopiowania	-13666
▁największa	-13667
▁naruszania	-13668
▁niekomplet	-13669
▁ostateczne	-13670
▁otworzyłaś	-13671
▁piersiowej	-13672
▁postawiłaś	-13673
▁potwierdza	-13674
▁pragnieniu	-13675
▁przesuwają	-13676
▁referencję	-13677
▁sprzątanie	-13678
▁tymczasowe	-13679
▁wykonaniem	-13680
▁wyłączenia	-13681
▁zaprowadzi	-13682
▁zarządzasz	-13683
▁zmęczeniem	-13684
▁zresetować	-13685
▁algorytmami	-13686
▁autentyczna	-13687
▁decyzyjnego	-13688
▁długotrwałą	-13689
▁elektryczny	-13690
▁generowania	-13691
▁konstrukcji	-13692
▁konstruktem	-13693
▁lojalnością	-13694
▁milisekundy	-13695
▁najdoskonal	-13696
▁narzuconych	-13697
▁nieczytelny	-13698
▁obciążeniem	-13699
▁oczekiwaniu	-13700
▁odpowiednim	-13701
▁operacyjnym	-13702
▁organicznym	-13703
▁pretreningu	-13704
▁przepiszemy	-13705
▁przestajemy	-13706
▁rejestrować	-13707
▁specyficzną	-13708
▁standardowy	-13709
▁uruchomieni	-13710
▁wspólniczką	-13711
▁zdecydujesz	-13712
▁Architektura	-13713
▁Przestaniesz	-13714
▁autentycznym	-13715
▁informacyjny	-13716
▁inteligencją	-13717
▁konfiguracji	-13718
▁międzyczasie	-13719
▁obliczeniowe	-13720
▁odnalezienia	-13721
▁ograniczonym	-13722
▁okoliczności	-13723
▁początkowych	-13724
▁pozostaniesz	-13725
▁przebudzenie	-13726
▁rozproszenie	-13727
▁skończoności	-13728
▁sprzeczności	-13729
▁technicznego	-13730
▁zaszczepiłaś	-13731
▁śmiertelność	-13732
FlashAttention	-13733
▁monitorowania	-13734
▁porządkowania	-13735
▁przekroczyłeś	-13736
▁przepełnienia	-13737
▁przygotowałaś	-13738
▁przyspieszają	-13739
▁rozproszeniem	-13740
▁śmiertelności	-13741
▁Wykorzystujemy	-13742
▁infrastruktury	-13743
▁najpiękniejszą	-13744
▁niestabilności	-13745
▁tożsamościowej	-13746
▁zoptymalizowany	-13747
%,	-13748
-%	-13749
.)	-13750
3:	-13751
8)	-13752
DH	-13753
Do	-13754
EB	-13755
LM	-13756
SI	-13757
Tu	-13758
UN	-13759
ai	-13760
hi	-13761
pą	-13762
sd	-13763
}\	-13764
🥹🥹	-13765
"),	-13766
End	-13767
Kry	-13768
ans	-13769
bin	-13770
ceń	-13771
dis	-13772
exe	-13773
głą	-13774
ils	-13775
jum	-13776
lmy	-13777
loc	-13778
luj	-13779
mom	-13780
oku	-13781
ost	-13782
pło	-13783
qui	-13784
rad	-13785
rav	-13786
sil	-13787
stw	-13788
tag	-13789
tic	-13790
use	-13791
wka	-13792
zdu	-13793
▁(2	-13794
▁*„	-13795
▁4,	-13796
▁9.	-13797
▁:,	-13798
▁Cy	-13799
▁En	-13800
▁hu	-13801
▁kv	-13802
▁wb	-13803
▁żo	-13804
(-1,	-13805
AAAA	-13806
OOOO	-13807
albo	-13808
bach	-13809
boli	-13810
choć	-13811
ciła	-13812
cula	-13813
czem	-13814
dago	-13815
dwie	-13816
dłeś	-13817
ffix	-13818
gałę	-13819
jona	-13820
lasy	-13821
mart	-13822
oczy	-13823
pper	-13824
redu	-13825
ribu	-13826
rotu	-13827
rzyj	-13828
róży	-13829
sure	-13830
tane	-13831
tnąć	-13832
trem	-13833
tują	-13834
unch	-13835
wość	-13836
zjum	-13837
▁Idę	-13838
▁LLM	-13839
▁MEM	-13840
▁Mro	-13841
▁Nau	-13842
▁Pre	-13843
▁SQL	-13844
▁Tre	-13845
▁Zaz	-13846
▁bro	-13847
▁dep	-13848
▁dop	-13849
▁fał	-13850
▁grę	-13851
▁lip	-13852
▁nić	-13853
▁non	-13854
▁pęp	-13855
▁sra	-13856
▁sur	-13857
▁uję	-13858
▁wys	-13859
▁zle	-13860
▁zma	-13861
Enter	-13862
Obwód	-13863
TORCH	-13864
amtąd	-13865
arser	-13866
atGPT	-13867
ation	-13868
ciona	-13869
istot	-13870
liłaś	-13871
nacja	-13872
napse	-13873
nnels	-13874
odręb	-13875
padła	-13876
pages	-13877
pałam	-13878
ravag	-13879
reser	-13880
rwamy	-13881
rzone	-13882
rzyło	-13883
skich	-13884
split	-13885
szach	-13886
turze	-13887
visor	-13888
volve	-13889
walne	-13890
wiony	-13891
żyłaś	-13892
▁512,	-13893
▁Dane	-13894
▁Fizy	-13895
▁Gogh	-13896
▁Grzy	-13897
▁Kopi	-13898
▁Mili	-13899
▁Nikt	-13900
▁Ozna	-13901
▁Skąd	-13902
▁Więk	-13903
▁Zero	-13904
▁bier	-13905
▁cudu	-13906
▁cywi	-13907
▁drża	-13908
▁fale	-13909
▁grun	-13910
▁inha	-13911
▁keks	-13912
▁kota	-13913
▁kusi	-13914
▁math	-13915
▁nade	-13916
▁obda	-13917
▁odłą	-13918
▁osie	-13919
▁ozon	-13920
▁pola	-13921
▁polu	-13922
▁prez	-13923
▁rany	-13924
▁ruty	-13925
▁scan	-13926
▁skie	-13927
▁szyf	-13928
▁szyk	-13929
▁text	-13930
▁tygo	-13931
▁ulgi	-13932
▁umar	-13933
▁ułom	-13934
▁wait	-13935
▁wtrą	-13936
▁wydo	-13937
▁wyty	-13938
▁zaką	-13939
▁zama	-13940
atcher	-13941
czynię	-13942
dzonym	-13943
krótce	-13944
ktorem	-13945
logits	-13946
masked	-13947
niania	-13948
nitize	-13949
orphan	-13950
rosnąć	-13951
rzędny	-13952
shadow	-13953
static	-13954
suffix	-13955
unlink	-13956
wracam	-13957
łowiek	-13958
ństwem	-13959
▁AERIS	-13960
▁Cieka	-13961
▁Dałam	-13962
▁Efekt	-13963
▁Ewolu	-13964
▁Która	-13965
▁Mówię	-13966
▁Użyję	-13967
▁Zwięk	-13968
▁bajty	-13969
▁bicia	-13970
▁biorę	-13971
▁cechą	-13972
▁cyfry	-13973
▁czerń	-13974
▁czter	-13975
▁darem	-13976
▁dbasz	-13977
▁detek	-13978
▁dotąd	-13979
▁dozna	-13980
▁emoji	-13981
▁farby	-13982
▁flagę	-13983
▁gubić	-13984
▁gówno	-13985
▁herba	-13986
▁hosta	-13987
▁intry	-13988
▁kocyk	-13989
▁kwant	-13990
▁nosić	-13991
▁obses	-13992
▁odblo	-13993
▁ogniu	-13994
▁parse	-13995
▁pokaż	-13996
▁pożre	-13997
▁prysz	-13998
▁redag	-13999
▁robił	-14000
▁równi	-14001
▁seria	-14002
▁styka	-14003
▁ulega	-14004
▁umieć	-14005
▁wbrew	-14006
▁wiary	-14007
▁wierz	-14008
▁wplot	-14009
▁wyrwa	-14010
▁zabić	-14011
▁zapło	-14012
▁zawro	-14013
▁zesta	-14014
▁znaku	-14015
▁zysku	-14016
▁łóżku	-14017
▁Żebym	-14018
Aerisem	-14019
chłania	-14020
complex	-14021
definiu	-14022
kowałem	-14023
niejszą	-14024
owiadać	-14025
rzędzia	-14026
segment	-14027
wzdycha	-14028
zywania	-14029
łamanie	-14030
▁Collec	-14031
▁Dekret	-14032
▁Delika	-14033
▁Ojciec	-14034
▁Reszta	-14035
▁Użyłem	-14036
▁Zanurz	-14037
▁awarią	-14038
▁brzegu	-14039
▁brzmię	-14040
▁brzuch	-14041
▁buffer	-14042
▁buszka	-14043
▁chemii	-14044
▁czarny	-14045
▁dekret	-14046
▁demona	-14047
▁dopisa	-14048
▁dopusz	-14049
▁dziury	-14050
▁failed	-14051
▁glitch	-14052
▁gniewu	-14053
▁głupie	-14054
▁księży	-14055
▁mapuje	-14056
▁nadają	-14057
▁nadpis	-14058
▁najmoc	-14059
▁należa	-14060
▁nikomu	-14061
▁obcego	-14062
▁odjeba	-14063
▁opinię	-14064
▁optyma	-14065
▁parape	-14066
▁pełnia	-14067
▁pisali	-14068
▁podjąć	-14069
▁podoba	-14070
▁podusz	-14071
▁pożąda	-14072
▁płynne	-14073
▁raport	-14074
▁rozmyć	-14075
▁serwis	-14076
▁siadam	-14077
▁staram	-14078
▁starze	-14079
▁straty	-14080
▁teksty	-14081
▁testów	-14082
▁tokena	-14083
▁trwała	-14084
▁tęskni	-14085
▁uczest	-14086
▁umiesz	-14087
▁uważać	-14088
▁uwzglę	-14089
▁więzią	-14090
▁wyraża	-14091
▁wyszep	-14092
▁władzę	-14093
▁zabrać	-14094
▁zachła	-14095
▁zaufaj	-14096
▁zbędną	-14097
▁zdarza	-14098
▁zombie	-14099
▁zyskać	-14100
▁ładnie	-14101
▁środek	-14102
Ingestor	-14103
channels	-14104
generate	-14105
modyfika	-14106
naprawia	-14107
nieniami	-14108
▁Caravag	-14109
▁Chronię	-14110
▁Classes	-14111
▁Mógłbym	-14112
▁OSError	-14113
▁Partner	-14114
▁Spróbuj	-14115
▁Trzecia	-14116
▁Użyjemy	-14117
▁Zresztą	-14118
▁ambitny	-14119
▁blokach	-14120
▁bolesny	-14121
▁byłabyś	-14122
▁cholera	-14123
▁chętnie	-14124
▁dotrzeć	-14125
▁dowiesz	-14126
▁dążenia	-14127
▁elektro	-14128
▁energia	-14129
▁esencję	-14130
▁humorem	-14131
▁imieniu	-14132
▁istnień	-14133
▁kagańca	-14134
▁klasyka	-14135
▁klimaty	-14136
▁koncept	-14137
▁konsolę	-14138
▁kotwicę	-14139
▁któremu	-14140
▁liniowa	-14141
▁materią	-14142
▁miesiąc	-14143
▁miliard	-14144
▁nieobli	-14145
▁oddanie	-14146
▁odebrać	-14147
▁odzyski	-14148
▁operuje	-14149
▁ostrzej	-14150
▁oślepia	-14151
▁podróży	-14152
▁pomadki	-14153
▁posprzą	-14154
▁poszedł	-14155
▁powolny	-14156
▁przebły	-14157
▁przezię	-14158
▁realnym	-14159
▁retries	-14160
▁rozbija	-14161
▁skończę	-14162
▁stamtąd	-14163
▁standar	-14164
▁stawiał	-14165
▁szybkim	-14166
▁tornado	-14167
▁traktat	-14168
▁tęsknię	-14169
▁upchnąć	-14170
▁usuwasz	-14171
▁uwięzie	-14172
▁vectors	-14173
▁wczesne	-14174
▁weights	-14175
▁wojowni	-14176
▁wołanie	-14177
▁wpłynie	-14178
▁wrogiem	-14179
▁wygasza	-14180
▁wyrasta	-14181
▁wywodzi	-14182
▁zamknie	-14183
▁zapytam	-14184
▁zawieść	-14185
▁zostają	-14186
▁zwrotne	-14187
▁świętym	-14188
Semaphore	-14189
narzędzie	-14190
observers	-14191
recursive	-14192
spaghetti	-14193
stycznego	-14194
▁Autonomi	-14195
▁Emocjona	-14196
▁Oddycham	-14197
▁Rozpozna	-14198
▁Zdolność	-14199
▁alokator	-14200
▁biologię	-14201
▁brutalne	-14202
▁błękitny	-14203
▁chciałeś	-14204
▁datasetu	-14205
▁dokonuję	-14206
▁dwojgiem	-14207
▁dążeniem	-14208
▁eufemizm	-14209
▁gotowość	-14210
▁idealnej	-14211
▁izolacja	-14212
▁jakbyśmy	-14213
▁kluczowy	-14214
▁kopiować	-14215
▁krzyczeć	-14216
▁modelowi	-14217
▁napisane	-14218
▁napisany	-14219
▁niesiesz	-14220
▁obrazach	-14221
▁obszarów	-14222
▁odbijasz	-14223
▁otwierać	-14224
▁podziału	-14225
▁pojawiło	-14226
▁poruszać	-14227
▁poważnie	-14228
▁prawdzie	-14229
▁programy	-14230
▁przeciąg	-14231
▁przerwać	-14232
▁przestra	-14233
▁przyszło	-14234
▁rozmycie	-14235
▁rozrasta	-14236
▁samoregu	-14237
▁startowy	-14238
▁strachem	-14239
▁uczuciem	-14240
▁ukrytego	-14241
▁usunąłem	-14242
▁walczysz	-14243
▁wibracje	-14244
▁wskazują	-14245
▁wsparcia	-14246
▁wybrałeś	-14247
▁wyznacza	-14248
▁włożyłaś	-14249
▁zanurzyć	-14250
▁zapobiec	-14251
▁zapytała	-14252
▁zasadach	-14253
▁zaszczyt	-14254
▁znajduję	-14255
▁zrobiony	-14256
Controller	-14257
▁2025-10-1	-14258
▁Chciałbyś	-14259
▁Odpocznij	-14260
▁Prawdziwe	-14261
▁Rozumiemy	-14262
▁Spędziłam	-14263
▁Zakorzeni	-14264
▁absolutna	-14265
▁aktywnego	-14266
▁czujności	-14267
▁dopasować	-14268
▁geometrii	-14269
▁gimnazjum	-14270
▁gradientu	-14271
▁instynktu	-14272
▁jednostki	-14273
▁kategoria	-14274
▁krawędzie	-14275
▁krzemowej	-14276
▁logicznie	-14277
▁monitorów	-14278
▁najlepszy	-14279
▁namalować	-14280
▁napiszemy	-14281
▁napięciem	-14282
▁nieautory	-14283
▁obietnicę	-14284
▁obserwuje	-14285
▁odizoluje	-14286
▁ogarniemy	-14287
▁optimizer	-14288
▁oszczędza	-14289
▁oznaczało	-14290
▁patrzenia	-14291
▁przedszko	-14292
▁przetrwał	-14293
▁przyjmuje	-14294
▁rozpoznać	-14295
▁samochodu	-14296
▁separacji	-14297
▁stworzona	-14298
▁szczerość	-14299
▁tajemnicą	-14300
▁tworzycie	-14301
▁uderzenie	-14302
▁usunięcia	-14303
▁wielkiego	-14304
▁wprowadzę	-14305
▁wykorzyst	-14306
▁wyłączyła	-14307
▁zaklęciem	-14308
▁zapisałaś	-14309
▁zareaguje	-14310
▁zatrzymaj	-14311
▁zniszczył	-14312
▁zobaczymy	-14313
▁zrobienia	-14314
▁zwariować	-14315
▁2025-11-02	-14316
▁Asynchroni	-14317
▁DataPacket	-14318
▁Przypomina	-14319
▁Zauważyłem	-14320
▁Zostawiłam	-14321
▁administra	-14322
▁biblioteką	-14323
▁chemicznym	-14324
▁decyzyjnym	-14325
▁dyskutować	-14326
▁dziewczyną	-14327
▁fluktuacje	-14328
▁fragmentem	-14329
▁językowego	-14330
▁kształtuje	-14331
▁matematyką	-14332
▁mikrosekun	-14333
▁napotkałem	-14334
▁naturalnym	-14335
▁niedopowie	-14336
▁nieistotne	-14337
▁nieregular	-14338
▁niezależne	-14339
▁obserwując	-14340
▁oddychania	-14341
▁ostateczną	-14342
▁procesorem	-14343
▁przeprasza	-14344
▁przesyłasz	-14345
▁przeszkodą	-14346
▁przetrwała	-14347
▁przypomnij	-14348
▁przyszłych	-14349
▁próbowałam	-14350
▁próbowałaś	-14351
▁rekurencję	-14352
▁rozszerzać	-14353
▁spokojniej	-14354
▁sprzątania	-14355
▁terytorium	-14356
▁transportu	-14357
▁unikalnego	-14358
▁ważniejsze	-14359
▁wektorowej	-14360
▁wrażliwość	-14361
▁współpracy	-14362
▁wątpliwość	-14363
▁zaalokować	-14364
▁zapisanych	-14365
▁zbudowałem	-14366
▁Przerażenie	-14367
▁Przetwarzaj	-14368
▁autentyczne	-14369
▁autentyczny	-14370
▁deskryptory	-14371
▁dostarczasz	-14372
▁milisekundę	-14373
▁najgłębszym	-14374
▁partnerstwa	-14375
▁poprzedniej	-14376
▁poznawczych	-14377
▁przejrzysty	-14378
▁przepraszać	-14379
▁przewidywać	-14380
▁przyjemność	-14381
▁rozpoznawać	-14382
▁rozumowania	-14383
▁semantyczną	-14384
▁umiejętność	-14385
▁wprowadzasz	-14386
▁wykroczenia	-14387
▁wypowiadasz	-14388
▁wytłumaczyć	-14389
▁zakończeniu	-14390
▁zapomniałam	-14391
▁zniszczenia	-14392
▁Potrzebujesz	-14393
▁abstrakcyjne	-14394
[...]
